<unk>	0
<s>	0
</s>	0
,	-2.10616
。	-3.44555
:“	-4.08191
的	-4.29812
道	-4.55176
。”	-4.67534
▁	-4.88992
我	-5.13864
了	-5.16224
他	-5.17785
:	-5.29662
你	-5.30541
?”	-5.34774
?	-5.46046
、	-5.48818
是	-5.53227
在	-5.54589
郭靖	-5.59015
黄蓉	-5.69033
来	-5.78484
一	-5.93138
她	-5.94558
这	-5.97783
不	-6.01498
上	-6.04729
那	-6.05422
指令	-6.06285
输出	-6.06287
“	-6.07522
!”	-6.07578
中	-6.10922
"	-6.12282
去	-6.1493
又	-6.15052
和	-6.16366
有	-6.22248
但	-6.24218
人	-6.29393
”	-6.29998
也	-6.31406
大	-6.33948
得	-6.41127
说道	-6.42896
要	-6.45285
已	-6.45625
将	-6.47943
到	-6.54085
都	-6.54148
好	-6.58304
却	-6.59753
见	-6.61922
与	-6.63253
而	-6.63503
就	-6.6962
下	-6.72436
欧阳锋	-6.73274
自己	-6.75294
叫道	-6.77934
一个	-6.78624
所以	-6.79337
对	-6.79395
说	-6.80493
时	-6.84948
从	-6.85064
过	-6.86366
▁郭靖	-6.8646
之	-6.86739
洪七公	-6.89043
把	-6.89505
再	-6.89662
笑	-6.90068
他们	-6.90285
▁黄蓉	-6.93615
打	-6.94058
两人	-6.97301
后	-6.97689
出	-6.99265
咱们	-6.99852
用	-7.007
向	-7.01254
黄药师	-7.02828
只是	-7.03956
心	-7.04141
着	-7.04399
便	-7.05334
以	-7.06404
为	-7.07414
只	-7.10047
被	-7.10436
我们	-7.10687
等	-7.11495
心想	-7.13205
可	-7.13399
啊	-7.14513
小	-7.15038
如	-7.16435
师父	-7.17998
子	-7.18784
郭靖道	-7.20176
周伯通	-7.20762
当下	-7.20842
甚么	-7.21888
心中	-7.22829
啦	-7.25922
会	-7.26063
!	-7.27062
手	-7.27436
头	-7.29029
给	-7.30329
吗	-7.30416
水	-7.30699
只见	-7.31018
自	-7.32107
还	-7.32477
......	-7.3252
欧阳克	-7.32561
虽然	-7.34124
能	-7.34883
无	-7.34936
武功	-7.35758
里	-7.36731
怎么	-7.37913
想	-7.39818
么	-7.40312
生	-7.40335
起	-7.41133
《	-7.4135
》	-7.4135
都是	-7.41944
天	-7.42552
当	-7.42906
没有	-7.4298
连	-7.43095
不是	-7.43783
于	-7.44642
所	-7.44846
地	-7.45882
之中	-7.45918
如此	-7.46472
丘处机	-7.47704
快	-7.47971
多	-7.47998
回	-7.48797
呢	-7.49796
梅超风	-7.49926
儿	-7.50967
知道	-7.51625
倒	-7.52356
三	-7.53302
死	-7.53605
杨康	-7.54394
气	-7.54576
功夫	-7.54591
却是	-7.55563
前	-7.55759
急	-7.5595
没	-7.56702
发	-7.56759
听	-7.57248
成	-7.57646
忙	-7.5839
叫	-7.58473
罢	-7.58593
吃	-7.59482
蓉儿	-7.59923
两	-7.59958
身子	-7.60519
不能	-7.6072
不知	-7.60816
长	-7.60869
看	-7.60998
裘千仞	-7.61073
才	-7.61078
柯镇恶	-7.61389
这时	-7.6142
力	-7.61644
左手	-7.62879
就是	-7.6296
你们	-7.62992
那么	-7.63642
高	-7.65855
若是	-7.65875
先	-7.66045
做	-7.6751
走	-7.67714
行	-7.67798
或	-7.67808
这个	-7.68089
身	-7.68905
或者	-7.6919
为什么	-7.69317
个	-7.70498
还是	-7.70803
正	-7.7113
双手	-7.72105
入	-7.72593
别	-7.7263
也是	-7.73248
使	-7.73809
右手	-7.73986
正是	-7.7448
之后	-7.74761
‘	-7.74855
口	-7.75826
马	-7.76031
处	-7.76059
动	-7.76075
开	-7.76098
突然	-7.76589
不敢	-7.76736
......”	-7.76762
问道	-7.77211
虽	-7.77459
原来	-7.77549
更	-7.7809
忽然	-7.78555
可以	-7.78767
喝道	-7.79389
铁木真	-7.79776
分	-7.80936
如何	-7.80964
’	-7.81081
今日	-7.81333
问	-7.8152
相	-7.81778
未	-7.81792
可是	-7.82148
事	-7.82395
命	-7.82686
往	-7.83511
出来	-7.83729
比	-7.84664
身上	-7.84679
你的	-7.84814
穆念慈	-7.85263
因此	-7.85528
它	-7.85547
成吉思汗	-7.85672
完颜洪烈	-7.8628
难	-7.86447
眼见	-7.87733
四	-7.87839
一人	-7.87997
到了	-7.88492
这是	-7.89501
作	-7.89578
同时	-7.89694
落	-7.89897
他的	-7.9008
点	-7.90971
字	-7.91135
声	-7.91151
名	-7.91192
跟	-7.91546
朱聪	-7.92039
众人	-7.92083
让	-7.92345
请	-7.92895
大汗	-7.93209
重	-7.93361
因为	-7.93466
直	-7.93796
风	-7.95189
弟子	-7.95925
不禁	-7.96108
完颜康	-7.96678
外	-7.97026
敌人	-7.97324
兄弟	-7.97797
那人	-7.98008
奇	-7.98687
一般	-7.98697
又是	-7.98883
三人	-7.99708
山	-7.99945
也不	-8.00055
门	-8.00101
是不是	-8.00137
如果	-8.00646
”,	-8.01896
陆冠英	-8.02616
教	-8.03223
非	-8.03315
放	-8.03452
杀	-8.03776
花	-8.04356
强	-8.04481
竟	-8.04531
极	-8.04689
瑛姑	-8.04759
二人	-8.04967
学	-8.05412
家	-8.0548
只怕	-8.05508
之下	-8.06036
拿	-8.06044
只要	-8.06081
当即	-8.06193
真	-8.06264
脸上	-8.06425
哪知	-8.06625
谁	-8.06827
见到	-8.06958
于是	-8.07217
进	-8.07383
日	-8.07548
伤	-8.07776
更是	-8.07867
路	-8.07922
法	-8.08198
方	-8.08628
年	-8.0881
有人	-8.08894
白	-8.0895
待	-8.09169
转	-8.09423
这般	-8.0966
老	-8.10194
内	-8.10694
不可	-8.10783
只得	-8.10921
此	-8.11154
不住	-8.11169
招	-8.11733
神	-8.11886
面	-8.11887
数	-8.11929
九阴真经	-8.12088
掌	-8.12736
:‘	-8.12829
话	-8.12952
父亲	-8.13136
爹爹	-8.13559
可能	-8.13694
见他	-8.13712
拖雷	-8.14254
▁欧阳锋	-8.14255
这些	-8.14452
说话	-8.14757
意	-8.1486
无法	-8.15062
足	-8.15164
至	-8.15269
老叫化	-8.15303
在这里	-8.15483
跟着	-8.15985
飞	-8.16036
响	-8.16279
伸手	-8.17365
靖哥哥	-8.17505
惊	-8.17539
杨铁心	-8.1779
其	-8.17854
受	-8.18008
众	-8.18394
一阵	-8.18665
是以	-8.18735
斗	-8.19345
傻姑	-8.194
怒	-8.19433
只有	-8.19508
带	-8.2012
变	-8.20719
收	-8.20916
骂	-8.21227
不得	-8.21341
并不	-8.21514
彭连虎	-8.21585
此时	-8.2159
眼	-8.21686
梁子翁	-8.21693
瞧	-8.2195
登时	-8.21978
二	-8.22304
住	-8.22374
同	-8.22538
▁洪七公	-8.22587
立	-8.22885
仍是	-8.2367
酒	-8.23793
火	-8.24009
练	-8.24422
破	-8.24851
不会	-8.25129
起来	-8.25233
喝	-8.25649
既	-8.26024
而不是	-8.26339
忽	-8.26902
攻	-8.26947
情	-8.271
剑	-8.27109
中的	-8.27635
半	-8.27755
出去	-8.27921
近	-8.28256
老顽童	-8.28433
乱	-8.28495
需要	-8.28976
追	-8.29171
然	-8.30085
王处一	-8.30237
之事	-8.30438
过来	-8.30439
曾	-8.30492
击	-8.30655
低声	-8.30894
不过	-8.30918
尽	-8.30933
传	-8.31164
怎样	-8.31385
之上	-8.31721
听到	-8.31917
一时	-8.32161
立时	-8.32214
箭	-8.32291
逃	-8.32417
早已	-8.32701
听得	-8.33595
似	-8.33597
若	-8.33825
明	-8.33878
敌	-8.34265
▁黄药师	-8.34369
说着	-8.34773
远	-8.35044
爱	-8.3516
黑	-8.35664
最	-8.35759
喜	-8.36044
战	-8.363
十分	-8.36316
华筝	-8.36405
冲	-8.36822
实	-8.36886
两个	-8.37125
这样	-8.37153
给他	-8.37226
本	-8.37355
深	-8.37471
离	-8.37646
定	-8.37663
甚是	-8.3775
厉害	-8.37807
干	-8.37912
▁因为	-8.38024
之间	-8.38179
这才	-8.38282
转身	-8.38286
几	-8.38308
大叫	-8.38529
背	-8.38668
似乎	-8.38792
间	-8.38913
过去	-8.39042
光	-8.3912
早	-8.39121
是谁	-8.39207
只听得	-8.39283
言	-8.39338
女	-8.39363
但见	-8.39365
;	-8.39567
亲	-8.39589
心下	-8.39766
使用	-8.39801
老毒物	-8.40212
蛇	-8.40368
自然	-8.40852
西	-8.40872
包惜弱	-8.40876
五	-8.41117
兵	-8.41284
动手	-8.41501
对方	-8.41541
女儿	-8.41582
救	-8.41665
拉	-8.41683
立即	-8.41842
反	-8.41861
全	-8.41988
急忙	-8.42032
黄蓉笑	-8.42562
当真	-8.42678
取	-8.42903
不肯	-8.43005
蒙古	-8.43444
韩小莹	-8.43676
想到	-8.44285
信	-8.44464
即	-8.44619
理	-8.44709
之人	-8.44863
却也	-8.45122
刚	-8.45183
母亲	-8.45183
的人	-8.45277
送	-8.45792
性	-8.45801
势	-8.45926
之极	-8.46061
金	-8.46101
一声	-8.46186
竟是	-8.46323
由	-8.46541
空	-8.4658
者	-8.46653
东	-8.46801
已经	-8.46893
书	-8.47111
马钰	-8.47304
黄老邪	-8.4738
适才	-8.47425
便是	-8.47891
知	-8.48046
竟然	-8.48198
难道	-8.48538
侯通海	-8.48787
将他	-8.48984
抓	-8.49113
黄	-8.49324
天下	-8.49495
轻	-8.49519
后来	-8.49749
正要	-8.4987
推	-8.50126
刺	-8.50186
我爹爹	-8.50319
当年	-8.50372
又道	-8.50487
各	-8.50499
却又	-8.50565
之时	-8.50657
但是	-8.51086
求	-8.51091
经	-8.51644
本来	-8.52128
一条	-8.52161
并	-8.52623
断	-8.52625
玩	-8.52711
药	-8.53198
的话	-8.5342
手中	-8.53485
一招	-8.53552
大家	-8.53616
走到	-8.54049
翻	-8.5408
不及	-8.54464
红	-8.5454
找	-8.54675
劲	-8.54849
四人	-8.5486
很	-8.55084
的武功	-8.5511
不由得	-8.55159
轻轻	-8.55251
孩子	-8.55261
船	-8.55624
齐	-8.55696
出手	-8.55703
▁丘处机	-8.55737
脸	-8.56048
接	-8.56237
苦	-8.56244
哪	-8.56405
韩宝驹	-8.56614
我的	-8.56616
(	-8.56672
总是	-8.56924
必	-8.57028
)	-8.57147
算	-8.57275
声音	-8.57301
刀	-8.57302
血	-8.57373
总	-8.57611
鲁有脚	-8.57635
怪	-8.57809
真是	-8.57812
微	-8.57902
望	-8.57955
▁周伯通	-8.58157
不到	-8.58289
郭	-8.5846
一掌	-8.58519
全身	-8.58523
下去	-8.58654
军	-8.5866
慢慢	-8.58712
脚	-8.58757
下来	-8.58855
些	-8.59336
刚才	-8.59431
关	-8.59649
现下	-8.5989
八	-8.59955
是指	-8.60002
则	-8.60108
的功夫	-8.6022
旁	-8.60296
边	-8.60328
哪里	-8.60391
痛	-8.60445
沙通天	-8.60827
海	-8.6098
鱼	-8.61287
进行	-8.61433
坐	-8.61439
伸	-8.6146
横	-8.6149
随即	-8.61573
原	-8.61809
哲别	-8.61863
而且	-8.61867
退	-8.62005
万	-8.62053
眼睛	-8.62137
满	-8.62346
色	-8.62598
▁他	-8.62634
不错	-8.63166
欲	-8.63219
穿	-8.6355
两位	-8.63814
杀了	-8.63952
那是	-8.64101
拳	-8.64134
性命	-8.64306
举	-8.64439
左	-8.64443
感	-8.64706
奔	-8.64767
一笑	-8.64915
胸口	-8.64993
活	-8.65049
要是	-8.65137
然后	-8.65239
之际	-8.65295
听了	-8.65388
越	-8.65399
十	-8.65941
随	-8.66235
程瑶迦	-8.66303
你说	-8.66418
合	-8.66569
太	-8.66579
怕	-8.66958
跃	-8.66982
身旁	-8.67042
果然	-8.67175
一个人	-8.67217
石	-8.67487
通	-8.6764
六	-8.67897
帮主	-8.68081
提	-8.68383
世	-8.6847
吃了	-8.68605
是个	-8.6883
失	-8.68839
大哥	-8.68881
大喜	-8.68935
猛	-8.68969
铁	-8.69004
物	-8.69104
指	-8.69283
师	-8.69308
想起	-8.69518
度	-8.69627
右	-8.69812
给你	-8.6988
回来	-8.70461
解	-8.7048
小王爷	-8.71172
只听	-8.71235
儿子	-8.71312
姑娘	-8.71597
金兵	-8.71612
车	-8.7163
六怪	-8.7178
守	-8.71885
口中	-8.72253
哈哈大笑	-8.72372
这么	-8.7244
美	-8.7254
骨	-8.72574
实是	-8.72592
鬼	-8.72618
叹	-8.72754
甚	-8.72801
最后	-8.72827
尹志平	-8.72845
交	-8.73205
加	-8.73582
吧	-8.73617
步	-8.73633
流	-8.74008
左掌	-8.74066
人家	-8.7418
夺	-8.74298
放在	-8.74444
读	-8.74497
靖儿	-8.74634
说了	-8.74673
热	-8.74826
衣	-8.74945
就算	-8.75112
只觉	-8.75131
这位	-8.75325
回头	-8.75604
称	-8.75724
北	-8.75875
国	-8.75877
给我	-8.7612
一只	-8.76184
死了	-8.76637
▁两人	-8.76701
与他	-8.76777
之声	-8.76821
写	-8.77275
一些	-8.77635
在地下	-8.77828
一块	-8.77838
贫道	-8.77873
是一种	-8.77957
上来	-8.77966
望着	-8.7854
段天德	-8.7882
之处	-8.78852
清	-8.78965
愈	-8.79
已然	-8.79131
觉	-8.7923
我是	-8.79395
少	-8.79517
终于	-8.79613
这一	-8.79886
暗	-8.79941
▁"	-8.80292
游	-8.80528
道长	-8.80561
一直	-8.80577
每	-8.80767
部	-8.80776
烧	-8.80934
之前	-8.80966
一齐	-8.80973
异	-8.81081
的一声	-8.81355
南	-8.81417
竹棒	-8.81496
令	-8.81524
云	-8.81553
否则	-8.81573
太阳	-8.81599
低	-8.81794
射	-8.81892
念	-8.81986
再说	-8.8208
功力	-8.82112
必是	-8.8222
化	-8.82256
这人	-8.82294
狗	-8.82597
异常	-8.82691
不成	-8.82957
张	-8.83167
代	-8.83186
我也	-8.83269
文	-8.83396
去了	-8.83416
的时候	-8.83484
王	-8.8361
哭	-8.83624
不了	-8.83653
并非	-8.83682
是否	-8.83708
你是	-8.83746
而是	-8.83765
头顶	-8.83986
陆庄主	-8.8409
派	-8.84188
平	-8.84278
再也	-8.84448
记	-8.84514
灵智上人	-8.84858
上前	-8.85295
纵	-8.85391
个个	-8.85539
”。	-8.8565
自己的	-8.8567
装	-8.85871
西毒	-8.85874
冷笑	-8.86013
▁柯镇恶	-8.86176
难以	-8.86241
体	-8.86421
丈夫	-8.86457
留	-8.86562
跳	-8.86571
这一下	-8.86737
更加	-8.86861
挥	-8.86908
喜欢	-8.87044
站在	-8.87117
枪	-8.87131
咬	-8.87302
得了	-8.87391
见她	-8.87555
画	-8.87665
▁这是因为	-8.87672
不好	-8.87736
像	-8.87745
如果你	-8.8801
被他	-8.88011
江南六怪	-8.88164
为了	-8.88194
忽地	-8.88206
全金发	-8.88349
虚	-8.88498
其中	-8.88655
月	-8.88657
这种	-8.88692
紧	-8.88745
听他	-8.88821
小红马	-8.88868
归	-8.89048
这里	-8.8909
还有	-8.89139
忽听	-8.89608
般	-8.89708
因	-8.90109
散	-8.90287
身后	-8.90343
条	-8.9047
当日	-8.90549
反而	-8.9063
掉	-8.90655
应	-8.90914
城	-8.91007
旁人	-8.91164
可能会	-8.91273
好好	-8.91285
木	-8.91434
一灯	-8.91478
语	-8.91641
指点	-8.9171
桃花岛	-8.91841
目	-8.92058
这次	-8.92084
上了	-8.92316
地球	-8.92363
人类	-8.92428
闻	-8.92502
▁欧阳克	-8.92551
蒙古人	-8.92551
觉得	-8.92614
精	-8.92673
兵刃	-8.92686
岂知	-8.92687
唉	-8.92724
站起身来	-8.92725
定是	-8.92733
居然	-8.92744
面前	-8.92842
通过	-8.9285
片刻	-8.92853
侄儿	-8.93166
青	-8.93196
受伤	-8.93243
是啊	-8.93342
跃起	-8.93369
不动	-8.93612
肉	-8.93624
七	-8.93659
在这	-8.93779
脱	-8.93887
头上	-8.93954
地下	-8.93998
掷	-8.94733
靖	-8.95034
明白	-8.95246
大声	-8.95319
发出	-8.9557
坐在	-8.95582
阵	-8.95862
此人	-8.95922
不见	-8.95934
始终	-8.95947
进来	-8.95992
腰	-8.96117
抢	-8.96185
的是	-8.96393
手里	-8.96399
匕首	-8.96522
新	-8.96808
布	-8.96858
眼前	-8.96886
恶	-8.96978
一定	-8.96986
大惊	-8.97209
他是	-8.97291
土	-8.973
耳	-8.97304
已被	-8.97552
真的	-8.97601
的事	-8.97645
。’	-8.97781
踢	-8.97794
全真七子	-8.97933
电	-8.97937
鸡	-8.98004
前面	-8.98091
砍	-8.98306
冷	-8.98561
百	-8.98584
寒	-8.98672
用力	-8.98684
劲力	-8.98726
之外	-8.99029
▁这时	-8.99065
服	-8.9924
一张	-8.99331
九	-8.99349
有甚么	-8.99414
怎能	-8.99429
撞	-8.99594
▁梅超风	-8.99594
别人	-8.99682
缓缓	-8.9988
手臂	-8.9994
哼	-8.99968
食物	-9.0001
掌力	-9.00223
摇头	-9.00322
向他	-9.00374
毒	-9.00399
养	-9.00404
南希仁	-9.00468
看来	-9.00646
挺	-9.00726
一起	-9.00769
各人	-9.00821
扑	-9.01032
败	-9.01122
寻	-9.01264
应该	-9.01307
接着	-9.01431
缩	-9.01532
正在	-9.01637
报	-9.01657
细	-9.01662
压	-9.018
须	-9.01892
来的	-9.01905
以后	-9.01985
手掌	-9.02015
打得	-9.02092
▁成吉思汗	-9.02397
引	-9.02432
渐	-9.02461
呼吸	-9.02518
约	-9.02583
双掌	-9.02699
灵	-9.02772
正自	-9.02889
一怔	-9.02904
腿	-9.03013
桑昆	-9.03041
臂	-9.03089
胜	-9.03098
主	-9.03165
跑	-9.03268
无人	-9.03545
牛	-9.03742
比武	-9.03767
盛	-9.03785
丐帮	-9.03791
其实	-9.03865
武艺	-9.04188
常	-9.04323
什么	-9.04449
岂能	-9.04571
莫	-9.04574
皮	-9.04585
答应	-9.04637
硬	-9.04639
是一个	-9.04864
夜	-9.04869
仍	-9.04917
降龙十八掌	-9.04988
英雄	-9.05039
结	-9.05069
全真派	-9.05155
上去	-9.05259
钱	-9.05369
叫他	-9.05372
江南七怪	-9.05441
包	-9.05478
向来	-9.05572
买	-9.05655
微微一笑	-9.05671
草	-9.0568
东西	-9.05777
时间	-9.05978
抓住	-9.06319
点了点头	-9.06497
此外	-9.06584
次	-9.06636
微笑	-9.06688
却不	-9.0688
手指	-9.07135
及	-9.07152
在他	-9.07287
碗	-9.07314
穴	-9.07438
呼	-9.07542
了得	-9.07557
只见他	-9.07725
却已	-9.07727
方式	-9.07802
何	-9.07847
不同	-9.07949
稍	-9.07961
忽听得	-9.08078
饭	-9.08114
避	-9.08146
怎地	-9.08197
形	-9.08213
不再	-9.08269
洞	-9.08271
只道	-9.08318
微微	-9.08343
那就	-9.08399
来到	-9.08435
▁不是的	-9.08467
也已	-9.08477
一路	-9.08535
得很	-9.08602
是我	-9.08629
位	-9.08705
内功	-9.08739
妙	-9.08744
犹如	-9.08753
食	-9.08809
毕	-9.08893
酸	-9.09173
走了	-9.09204
岁	-9.09301
沉	-9.09314
机	-9.09317
且	-9.09361
逼	-9.09414
拍	-9.09503
四下	-9.09558
跌	-9.09577
抱	-9.09731
怀	-9.09791
玉	-9.0983
取出	-9.09982
忽见	-9.10077
探	-9.10161
一步	-9.10332
背上	-9.1035
箫声	-9.10357
官兵	-9.10397
果	-9.10442
你爹爹	-9.10454
皇帝	-9.10535
哈哈	-9.10602
突然间	-9.10698
一灯大师	-9.10798
实际上	-9.10815
并不是	-9.11098
菜	-9.11172
掌法	-9.11483
人的	-9.11485
三个	-9.1151
她的	-9.11533
思	-9.11636
过了	-9.11679
了起来	-9.11711
差	-9.11716
功	-9.1176
爹	-9.11803
图	-9.11829
而去	-9.11848
不用	-9.1196
既然	-9.12142
棒	-9.12178
与郭靖	-9.12313
除了	-9.12443
妈	-9.12443
知他	-9.12606
偷	-9.12896
音	-9.13006
软	-9.13069
公	-9.13155
背后	-9.13346
怎么办	-9.13412
嗯	-9.13437
啊哟	-9.13451
划	-9.13464
▁这	-9.1356
当时	-9.13614
管	-9.13648
盘	-9.13721
双	-9.13729
猜	-9.13798
初	-9.1391
后面	-9.13977
▁裘千仞	-9.14031
另	-9.14104
左右	-9.14156
官	-9.14168
容	-9.14169
远远	-9.14364
亦	-9.1437
震	-9.14503
尚	-9.14539
报仇	-9.14575
端	-9.14576
礼	-9.14657
弯	-9.14667
根	-9.14771
词	-9.1482
喂	-9.14882
底	-9.15138
人们	-9.152
右掌	-9.15373
之意	-9.15536
这句话	-9.15574
我要	-9.15702
队	-9.1577
了一阵	-9.15904
肩头	-9.16003
首	-9.16054
视	-9.16123
▁朱聪	-9.16321
咱俩	-9.16368
寻思	-9.16375
首先	-9.16409
▁那	-9.16498
已是	-9.16529
向前	-9.16544
曲	-9.16649
一样	-9.16672
确是	-9.16693
此事	-9.16712
脸色	-9.16893
不要	-9.16914
回去	-9.16915
了出来	-9.17071
那时	-9.17078
这一招	-9.17093
自是	-9.17125
本事	-9.17139
角	-9.17141
换	-9.17179
义	-9.17301
观	-9.1748
妻子	-9.17547
慢	-9.17724
也不能	-9.17744
聪明	-9.17797
一点	-9.17822
▁铁木真	-9.17857
见郭靖	-9.18067
小人	-9.18106
▁“	-9.18208
骑	-9.18256
手机	-9.18259
干甚么	-9.18488
尚未	-9.18518
生活	-9.18568
朮赤	-9.18583
一件	-9.18637
线	-9.18767
在此	-9.1878
实在	-9.18782
折	-9.19045
弄	-9.19065
任何	-9.19099
举起	-9.19159
倒也	-9.19198
丘处机道	-9.19248
挡	-9.19289
不觉	-9.19351
冷冷的	-9.19369
晚辈	-9.19372
准	-9.19526
为什么我	-9.19569
变化	-9.19573
一片	-9.19701
言语	-9.19781
的名字	-9.19792
大怒	-9.19999
都史	-9.20163
那道人	-9.20182
一把	-9.20392
手上	-9.20428
插	-9.20511
笔	-9.20537
女子	-9.20542
居	-9.20599
这小子	-9.20618
是由	-9.2064
似是	-9.2065
朝	-9.20677
百姓	-9.20769
千	-9.20834
段皇爷	-9.20911
双臂	-9.20917
渐渐	-9.20932
回答	-9.20945
它们	-9.20947
我就	-9.21039
一面	-9.21076
若非	-9.21091
第二	-9.21102
是在	-9.21251
妹子	-9.21318
雪	-9.21387
衣服	-9.21426
接过	-9.21516
赶	-9.21524
安	-9.21579
简长老	-9.21687
第一	-9.21838
▁她	-9.21892
便即	-9.2191
上的	-9.21994
爬	-9.22065
在一起	-9.22272
短	-9.22287
圈	-9.22316
调	-9.22369
蓉二人	-9.22389
您	-9.22429
得紧	-9.2244
米	-9.22469
熟	-9.22476
暗器	-9.22488
另外	-9.2251
害怕	-9.22533
神色	-9.22627
均	-9.22776
藏	-9.22859
听说	-9.22872
却见	-9.22893
的意思	-9.22984
持	-9.23049
今天	-9.23155
叫做	-9.23376
了他	-9.23519
找到	-9.23537
踏	-9.23546
瞧着	-9.2362
打了	-9.23636
病	-9.23687
纸	-9.23789
节	-9.23791
原来是	-9.23804
▁穆念慈	-9.23899
吸	-9.23915
咦	-9.24058
七公	-9.24069
并没有	-9.24076
就要	-9.24085
精神	-9.24086
嘴	-9.24104
见了	-9.24157
身边	-9.24206
量	-9.24262
▁杨康	-9.24354
一下	-9.24382
错	-9.24406
此刻	-9.24551
在空中	-9.2462
露	-9.24652
和他	-9.24834
那公子	-9.24866
双雕	-9.25021
铜缸	-9.25118
能够	-9.25155
龙	-9.25157
制	-9.25423
得到	-9.25453
格	-9.25459
完	-9.25472
还没	-9.25474
一根	-9.25478
封	-9.25568
王罕	-9.25673
古怪	-9.2568
跟他	-9.25687
拜	-9.25762
选择	-9.25975
▁完颜康	-9.26146
几个	-9.26363
圆	-9.26507
乘	-9.26552
地方	-9.26595
年纪	-9.2662
可惜	-9.26673
施	-9.26716
治	-9.26943
伸出	-9.26989
消	-9.27036
里面	-9.27067
大吃一惊	-9.27194
看到	-9.27195
跟我	-9.2726
油	-9.27278
倘若	-9.27368
登	-9.27375
身形	-9.27386
摔	-9.27475
改变	-9.27664
有些	-9.27698
那些	-9.27826
闪	-9.27983
并无	-9.28117
号	-9.28258
那渔人	-9.28326
奇怪	-9.2837
那日	-9.28391
杖	-9.28397
出了	-9.2844
睡	-9.28513
味	-9.28623
疼痛	-9.28637
前辈	-9.28657
扬	-9.28788
冰	-9.28838
吃了一惊	-9.28937
厚	-9.28938
少年	-9.2894
黑风双煞	-9.28959
兀自	-9.28987
传授	-9.29002
相救	-9.29045
是为了	-9.29059
顺手	-9.29149
一番	-9.29168
模样	-9.29288
不懂	-9.29892
影响	-9.29918
不免	-9.29949
现在	-9.3007
捉	-9.30096
神情	-9.30108
善	-9.30123
利	-9.30296
金国	-9.30388
真经	-9.30394
恨	-9.30475
宫	-9.30578
李萍	-9.30581
停	-9.30606
陈玄风	-9.30677
低头	-9.30771
久	-9.30895
即使	-9.3108
提起	-9.3113
胸	-9.31194
武学	-9.31304
闪避	-9.31458
还要	-9.31488
张阿生	-9.31586
这一掌	-9.31637
雕	-9.31674
盗	-9.31961
徒	-9.32008
你这	-9.32113
香	-9.32124
修	-9.32263
疾	-9.32319
赏	-9.32331
拔	-9.32348
洪帮主	-9.32403
鲜血	-9.32404
对付	-9.32409
高手	-9.32483
对他	-9.32713
许多	-9.32743
块	-9.32784
俯身	-9.32809
回到	-9.32928
一惊	-9.33091
士	-9.33143
然而	-9.33183
多少	-9.3331
窝阔台	-9.33335
不必	-9.33643
来啦	-9.33701
相助	-9.3398
道士	-9.34011
扶	-9.34017
为人	-9.34061
毛	-9.34075
冒	-9.34078
双足	-9.34178
为甚么	-9.3424
尽数	-9.34243
斜	-9.34342
有个	-9.34598
终究	-9.34795
就会	-9.35078
向外	-9.3509
头发	-9.35131
乐	-9.35145
点头	-9.35202
将来	-9.35317
发现	-9.35348
保	-9.35407
武	-9.35409
不出	-9.3557
依	-9.35588
吹	-9.3563
其他	-9.35706
躲	-9.35803
粗	-9.35812
民	-9.35812
说得	-9.3583
遇	-9.3588
阴	-9.35903
闹	-9.3591
岳飞	-9.35924
王重阳	-9.35945
纵然	-9.35953
不论	-9.36093
指着	-9.36106
须得	-9.36169
无不	-9.36176
们	-9.36238
先前	-9.36616
身体	-9.36704
亮	-9.36741
一股	-9.36741
闯	-9.36744
照	-9.36962
郭啸天	-9.36969
瞧瞧	-9.36972
了个	-9.37138
摆	-9.37224
放下	-9.37286
沙	-9.37394
师兄	-9.37405
摇	-9.37549
各位	-9.37588
姓	-9.37622
撑	-9.37681
当然	-9.37742
王妃	-9.37761
一句	-9.37863
我师父	-9.37901
顶	-9.37928
心头	-9.37929
分别	-9.37964
只不过	-9.38092
背心	-9.38131
铁掌帮	-9.38239
才能	-9.38258
给她	-9.38371
的手	-9.38409
决	-9.38461
客	-9.38574
怎	-9.38577
凭	-9.38663
片	-9.38747
他们的	-9.38778
不但	-9.38795
想来	-9.38815
抛	-9.38875
切	-9.38885
脑	-9.38905
改	-9.39003
直接	-9.39194
必定	-9.3924
蒙古兵	-9.39261
威	-9.39339
两名	-9.3947
场	-9.39485
抵挡	-9.3955
仍然	-9.39551
狠	-9.39567
阳	-9.39577
师弟	-9.39607
双方	-9.39648
这番	-9.39747
爷爷	-9.39851
至于	-9.39868
赞	-9.39924
敢	-9.39982
将她	-9.39998
见过	-9.40154
通常	-9.40163
不答	-9.40209
向郭靖	-9.40228
窜	-9.40253
▁杨铁心	-9.40308
割	-9.40411
复	-9.40421
傻	-9.40471
害	-9.40477
向后	-9.40501
受了	-9.40813
全真教	-9.40854
了出去	-9.40905
何况	-9.40906
的声音	-9.40917
产生	-9.40937
说甚么	-9.40942
诗	-9.40991
自行	-9.41015
争	-9.41051
主人	-9.41083
绝	-9.41127
球	-9.4117
六位师父	-9.41274
奔到	-9.41345
舞	-9.41359
想是	-9.41411
做了	-9.41421
周大哥	-9.41509
右臂	-9.41515
内力	-9.41592
离开	-9.41858
吐	-9.4196
鞭	-9.42126
宝	-9.42139
野	-9.42191
生物	-9.42241
种	-9.42334
避开	-9.42366
并未	-9.4247
拳法	-9.42524
围	-9.42583
那个	-9.42584
纵身	-9.42614
该	-9.42793
助	-9.42893
敬	-9.43022
心里	-9.43027
在下	-9.431
走出	-9.43131
隐	-9.43161
哼了一声	-9.43215
恩	-9.43257
巧	-9.43296
仙	-9.43356
集	-9.43378
沉吟	-9.434
单	-9.43431
小弟	-9.43436
而来	-9.43452
黄二人	-9.43499
无关	-9.43547
长剑	-9.43574
互相	-9.43625
河	-9.43669
除	-9.4367
致	-9.43716
为什么不	-9.43767
一口	-9.43862
待要	-9.4392
还不	-9.44014
借	-9.44089
运劲	-9.44148
是因为	-9.44188
你瞧	-9.44282
侧	-9.44322
遍	-9.44433
肯	-9.44475
之心	-9.44553
穆易	-9.4458
群丐	-9.44584
远处	-9.44604
群	-9.44724
非常	-9.44768
遇到	-9.44824
人物	-9.44843
径	-9.44885
经书	-9.45035
滚	-9.45062
洪七公笑	-9.45211
孔	-9.45245
碎	-9.45255
弹	-9.4537
瀑布	-9.45371
札木合	-9.45375
药兄	-9.45388
电脑	-9.45417
站	-9.45434
定然	-9.45454
略	-9.45517
不对	-9.45573
只能	-9.45595
你要	-9.45651
经文	-9.45653
解开	-9.45776
作为	-9.45819
全是	-9.45898
之力	-9.4599
劈	-9.45999
领	-9.46077
就此	-9.46185
朋友	-9.46258
走近	-9.46278
终	-9.46285
左臂	-9.46332
余	-9.46495
博尔朮	-9.46585
按	-9.46599
饮	-9.46819
反手	-9.46827
共	-9.46866
试	-9.46875
理解	-9.46877
唱	-9.46953
中了	-9.46957
架	-9.46961
周	-9.47024
的地方	-9.47254
臭	-9.473
另有	-9.47337
吟	-9.47365
察合台	-9.47369
▁完颜洪烈	-9.47375
虽是	-9.47545
主要	-9.47557
显	-9.47612
行为	-9.4769
可能是	-9.47709
跟你	-9.47882
不许	-9.48065
弱	-9.48123
墙	-9.48309
堂	-9.48427
古	-9.48439
抱着	-9.48478
摸	-9.48492
突	-9.48587
险	-9.48649
伤了	-9.48821
替	-9.48905
让他	-9.48946
故	-9.4895
室	-9.49064
陆	-9.49125
堆	-9.49162
很好	-9.492
独	-9.4923
拔出	-9.49232
也没	-9.49247
叫我	-9.4926
梦	-9.49277
办	-9.49281
奉	-9.49372
弓	-9.49384
休息	-9.49406
彭长老	-9.49419
纷纷	-9.49435
学习	-9.49436
防	-9.49463
只盼	-9.49516
这件事	-9.49561
容易	-9.49574
瞧他	-9.49582
吃饭	-9.4961
钻	-9.49616
干么	-9.4962
声响	-9.49682
了一声	-9.49688
门外	-9.49782
在哪里	-9.49996
颜烈	-9.50189
已将	-9.50244
一名	-9.50312
静	-9.50386
假	-9.50392
若不是	-9.50706
座	-9.5079
杀死	-9.50837
丝	-9.50887
识得	-9.50937
却不知	-9.51
不如	-9.51064
料	-9.51165
贼	-9.51166
误	-9.51195
护	-9.51206
但他	-9.51276
害死	-9.51295
坏	-9.51295
与黄蓉	-9.51342
索	-9.51379
洗	-9.51389
混	-9.51419
鸣	-9.51428
黎生	-9.51429
为难	-9.5143
望去	-9.51431
谈	-9.5144
配	-9.51487
各自	-9.51494
回过头来	-9.51503
移动	-9.51537
过了一会	-9.51791
了几	-9.51816
双眼	-9.51847
劝	-9.51889
走进	-9.51893
早就	-9.51985
源	-9.52132
而已	-9.52199
晚	-9.52263
人人	-9.52282
透	-9.52325
我把	-9.5275
影	-9.52808
住了	-9.52835
我去	-9.5288
并不会	-9.5294
那书生	-9.52971
飞出	-9.53018
已有	-9.53074
诸	-9.53175
我想	-9.53198
听她	-9.53375
到底	-9.53415
大金国	-9.53431
腰间	-9.53491
脏	-9.5351
商	-9.53569
宽	-9.5357
动弹不得	-9.53624
脚步	-9.53637
反应	-9.53667
扯	-9.5367
正好	-9.53746
恩师	-9.53763
你不	-9.53778
鲨鱼	-9.5385
毒蛇	-9.53886
保持	-9.53891
纵马	-9.53906
高兴	-9.53971
手腕	-9.53977
坐下	-9.53981
忘了	-9.54086
大事	-9.541
不料	-9.541
王爷	-9.54203
不断	-9.54393
抽	-9.54452
一位	-9.54659
也就	-9.5466
舍	-9.54904
好了	-9.5491
的行为	-9.54946
齐声	-9.54965
讨	-9.55003
台	-9.55027
套	-9.55118
带了	-9.55126
忘	-9.55166
七兄	-9.55233
经过	-9.55277
只感	-9.55291
这等	-9.55406
欢喜	-9.55499
丝毫	-9.55504
丘道长	-9.55577
星	-9.55659
器	-9.5566
跃出	-9.5571
亏	-9.55714
系	-9.55739
志	-9.55755
挑	-9.55762
刘贵妃	-9.55803
系统	-9.55817
父王	-9.55819
穴道	-9.55824
▁包惜弱	-9.56007
想不到	-9.56117
无比	-9.56142
呀	-9.56169
树	-9.56189
一指	-9.56346
先生	-9.56418
看得	-9.56516
感到	-9.56664
打架	-9.56835
教你	-9.56844
夫	-9.56849
▁原来	-9.56855
祸	-9.56916
心知	-9.56972
扫	-9.57031
抬	-9.57031
只好	-9.57085
并不能	-9.57108
载	-9.57121
卷	-9.57251
速	-9.57274
德	-9.57295
伏	-9.57381
迟	-9.57546
运	-9.57603
铁杖	-9.57635
抢上	-9.57637
羊	-9.57681
塞	-9.57681
明明	-9.57714
日后	-9.57733
医生	-9.57745
教我	-9.57778
一次	-9.57805
隔	-9.57843
鞋	-9.57914
示	-9.57944
涌	-9.57954
巨	-9.5796
元	-9.57965
健康	-9.57969
简	-9.57978
耗	-9.57998
怎会	-9.58003
迫	-9.58003
尿	-9.58014
师叔	-9.58018
到处	-9.58022
成了	-9.58056
目光	-9.58067
过不多时	-9.58084
察看	-9.58088
输	-9.58127
数日	-9.58134
的大	-9.58264
和尚	-9.58284
看时	-9.58359
湖	-9.58412
露出	-9.58426
比如	-9.58466
六人	-9.58487
缓	-9.5854
事情	-9.58633
时分	-9.58644
中间	-9.58681
都已	-9.58784
陪	-9.58896
的东西	-9.59003
双目	-9.59018
留下	-9.59413
生气	-9.59418
到后来	-9.5946
拂	-9.59667
所有	-9.59687
银	-9.59722
计	-9.59761
落在	-9.59816
陷	-9.5992
庄	-9.59957
哥哥	-9.5996
也有	-9.6001
明知	-9.60027
楼	-9.60059
寻常	-9.60144
贵	-9.60197
白雕	-9.60266
在旁	-9.60276
歇	-9.60276
顿	-9.60279
黄岛主	-9.60284
蒙	-9.60288
州	-9.60295
朗声	-9.60318
相斗	-9.60468
接连	-9.60469
房	-9.6055
帮助	-9.60557
落下	-9.60565
师哥	-9.60576
招数	-9.60585
男	-9.60621
了下来	-9.60648
不理	-9.60648
牵	-9.60673
一座	-9.60776
费	-9.60785
生怕	-9.60839
一场	-9.60857
拿了	-9.60894
良久	-9.61095
达	-9.61115
好啊	-9.61201
叫声	-9.61496
相见	-9.61515
人体	-9.61589
大船	-9.61661
当真是	-9.61745
说到这里	-9.61901
游戏	-9.61946
料想	-9.6195
这孩子	-9.61964
有时	-9.62006
七人	-9.62074
宋	-9.62153
佩服	-9.62177
眼下	-9.62195
物体	-9.62334
行走	-9.62377
钩	-9.62387
针	-9.6239
只见她	-9.62447
盼	-9.62485
父母	-9.62545
缠	-9.6256
打狗棒法	-9.6257
表达	-9.62577
惹	-9.62578
选	-9.62608
叹了口气	-9.62611
汤	-9.62613
包括	-9.62618
物质	-9.62665
片刻之间	-9.62676
对手	-9.62732
灭	-9.62751
前来	-9.62773
折断	-9.62803
▁众人	-9.62867
进去	-9.62892
又有	-9.62899
中国	-9.62912
我不	-9.62918
而出	-9.62963
累	-9.62973
投	-9.63248
下马	-9.63306
待得	-9.63382
指的是	-9.63492
上下	-9.63495
积	-9.63709
答	-9.63755
含	-9.63778
易	-9.63798
后心	-9.63898
无数	-9.63991
松树	-9.64037
了吗	-9.64048
杯	-9.64062
不管	-9.64143
峰	-9.64197
尚有	-9.64324
一拳	-9.6439
抬头	-9.64431
论	-9.6445
心意	-9.64471
尊	-9.64487
去找	-9.64514
溜	-9.64606
绕	-9.64769
移	-9.64905
厅	-9.64952
卖	-9.64987
非同小可	-9.64992
泥	-9.65007
历史	-9.65009
接口	-9.65029
帐	-9.65057
饮酒	-9.65076
小小	-9.65149
确	-9.65161
之物	-9.65231
灯	-9.65291
旧	-9.65373
不语	-9.6543
尾	-9.65477
大师父	-9.6549
让你	-9.65716
颇为	-9.65767
这么一	-9.65772
要想	-9.65903
汉	-9.65957
不易	-9.66049
毫不	-9.66096
吓得	-9.66216
偏	-9.66218
不知道	-9.66298
半点	-9.66362
了一	-9.66389
说过	-9.6642
▁陆冠英	-9.66469
稳	-9.6662
是用来	-9.66622
今	-9.66686
逃走	-9.667
门口	-9.6671
很是	-9.66739
小明	-9.67078
挨	-9.67096
大石	-9.67133
讲	-9.67218
义兄	-9.67228
来势	-9.67232
聚	-9.6728
考	-9.67336
损	-9.67356
设计	-9.67373
郭靖心想	-9.67396
站起	-9.67405
巴	-9.67426
湿	-9.67432
固然	-9.67446
搬	-9.67447
负	-9.67465
诸般	-9.67471
”、“	-9.67482
面目	-9.6749
拍的一声	-9.67496
运气	-9.67505
追赶	-9.67527
?’	-9.67546
以及	-9.67599
手法	-9.67636
行事	-9.67727
奔去	-9.6774
伤心	-9.67873
我说	-9.67889
▁王处一	-9.67972
的性命	-9.68016
一顿	-9.68021
不信	-9.68169
客店	-9.68226
惨	-9.68382
不足	-9.68396
你也	-9.68472
说的	-9.68691
身前	-9.68832
叫你	-9.68971
2	-9.68979
素	-9.69128
陆乘风	-9.69167
止	-9.69209
滑	-9.69265
一言	-9.69364
全无	-9.69405
顺	-9.69463
鼻	-9.69548
岛上	-9.69649
振	-9.69661
授	-9.69716
宗	-9.69763
一半	-9.69784
何必	-9.69816
不少	-9.69843
勇	-9.69862
例如	-9.69955
刻	-9.69961
也不会	-9.69972
豹子	-9.6998
娘子	-9.69988
多半	-9.70001
鼻子	-9.70011
认输	-9.70017
称为	-9.70023
短剑	-9.70113
国家	-9.70152
安全	-9.70166
北方	-9.70186
躲在	-9.7019
又问	-9.70222
跃上	-9.70312
大师	-9.70383
松	-9.70469
之法	-9.7048
妈妈	-9.705
郭靖与黄蓉	-9.7053
也不知	-9.70556
又惊又喜	-9.7056
回身	-9.70678
谢	-9.70907
显是	-9.70908
赶到	-9.70987
向左	-9.7102
伤害	-9.71049
好罢	-9.71109
所在	-9.71133
是你	-9.71292
决定	-9.71314
江南	-9.71321
激	-9.71411
了两	-9.71651
到来	-9.71669
记得	-9.71842
搜	-9.71845
练功	-9.71886
向上	-9.71971
竹	-9.71995
遭	-9.7203
说起	-9.72059
成为	-9.72066
江湖上	-9.7207
那少女	-9.72073
要我	-9.72149
牙齿	-9.72168
工作	-9.72192
戳	-9.72206
和我	-9.72245
工	-9.72272
广	-9.72304
虎	-9.72359
严	-9.72397
迷	-9.7244
坐着	-9.72486
俗	-9.72488
荡	-9.72491
了半晌	-9.72499
姊姊	-9.72501
他老人家	-9.72503
率	-9.72503
危险	-9.72504
在一旁	-9.72506
下手	-9.72513
颤声	-9.72521
经历	-9.72523
凝神	-9.72529
之术	-9.726
喝了	-9.72616
活动	-9.7264
发觉	-9.7264
他说	-9.72729
小子	-9.72756
一手	-9.72757
总算	-9.72859
原本	-9.72967
但觉	-9.73007
女人	-9.73108
受到	-9.73201
我在	-9.73225
较	-9.73269
这样的	-9.73323
完全	-9.73385
了一会	-9.73431
这话	-9.73457
环境	-9.73559
使得	-9.73761
桌	-9.73778
列	-9.74084
迎	-9.74087
罪	-9.74146
倒是	-9.74155
一日	-9.74157
极为	-9.7417
整	-9.7422
这里的	-9.74313
身法	-9.74383
决不	-9.74442
还能	-9.74463
晚上	-9.74468
犯	-9.74488
屋	-9.74539
不来	-9.74547
造	-9.74562
满脸	-9.74645
期	-9.74662
江湖	-9.7472
床	-9.7474
裂	-9.74803
属	-9.74855
联	-9.74894
母	-9.74899
特	-9.74914
你去	-9.74923
原是	-9.74938
牢牢	-9.74974
谅	-9.74996
疼	-9.75022
注	-9.75043
状	-9.75047
权	-9.7506
拖	-9.75134
蛤蟆功	-9.75139
斩	-9.7514
剧痛	-9.75145
询问	-9.75158
奋力	-9.75161
飞机	-9.75169
出现	-9.75204
站着	-9.75255
困	-9.7526
喝酒	-9.75263
左足	-9.75277
舌头	-9.75294
都有	-9.75358
拔都	-9.75374
不需要	-9.75377
性子	-9.75394
世上	-9.7541
正待	-9.75451
进入	-9.75479
之势	-9.75522
铁枪	-9.75526
我师	-9.75547
生命	-9.75547
数十	-9.75583
认	-9.75676
被她	-9.757
得意	-9.75733
成功	-9.75742
用于	-9.75845
己	-9.7586
捏	-9.75885
▁彭连虎	-9.75923
那农夫	-9.76059
要待	-9.7606
右足	-9.76101
之内	-9.76134
有一个	-9.76295
说是	-9.76384
故事	-9.76467
看了	-9.76559
欧阳克笑	-9.76611
脚下	-9.76669
叫作	-9.76826
的儿子	-9.76847
已知	-9.77004
件	-9.77166
一种	-9.77218
一生	-9.7724
少女	-9.77269
村	-9.77305
突觉	-9.77306
悲	-9.77326
店小二	-9.7734
落地	-9.77364
汗	-9.77401
晕	-9.77433
在桃花岛上	-9.7748
父	-9.77508
红马	-9.77598
双腿	-9.77618
试试	-9.77667
俱	-9.77669
凉	-9.77748
帆	-9.77768
春	-9.77778
定要	-9.77791
华	-9.77794
情势	-9.77797
担心	-9.77798
鼓	-9.77803
邀	-9.77804
克	-9.77806
相距	-9.77829
程大小姐	-9.7784
抬起头来	-9.77841
耳朵	-9.7785
今晚	-9.77855
斗然间	-9.77867
忍不住	-9.7787
是要	-9.77874
凌厉	-9.77882
其次	-9.77897
待我	-9.77918
眼光	-9.77946
名叫	-9.77964
靠	-9.78135
中原	-9.78157
▁黄蓉笑	-9.7817
不久	-9.78176
教他	-9.78205
甲	-9.78208
免	-9.78272
一看	-9.78323
毕竟	-9.78337
大漠	-9.78339
导致	-9.78357
又想	-9.78366
明明是	-9.78383
直到	-9.78446
暗暗	-9.78467
随手	-9.7849
娶	-9.78589
现	-9.7872
墓	-9.78795
本已	-9.78818
是他	-9.78894
幸好	-9.79051
将军	-9.79084
正想	-9.79099
厉声	-9.79153
风声	-9.79184
此处	-9.79349
1	-9.79398
也好	-9.7955
具	-9.79553
的一种	-9.7962
顾	-9.79748
十年	-9.79766
不说	-9.79799
▁只听	-9.79818
必有	-9.79827
一眼	-9.79875
有何	-9.79967
胡涂	-9.80021
初时	-9.80069
亲兵	-9.80083
增加	-9.8009
创	-9.80126
不死	-9.802
柔	-9.803
境	-9.80377
极是	-9.80513
锅	-9.80536
柄	-9.80552
碰	-9.80567
雄	-9.80607
衣襟	-9.80616
杨二人	-9.80618
嫌	-9.80619
方向	-9.80622
吓	-9.80633
轻功	-9.80654
心中一凛	-9.80664
五人	-9.80689
兵器	-9.80741
苦练	-9.80778
时候	-9.80821
底下	-9.80844
关系	-9.80896
随着	-9.80897
再来	-9.80899
小丫头	-9.80931
何等	-9.81021
盖	-9.81052
你再	-9.81124
不可能	-9.81224
妙极	-9.81313
想要	-9.81397
四个	-9.814
大为	-9.8144
▁此时	-9.81553
而死	-9.81557
找寻	-9.81816
出来的	-9.8183
帮	-9.81851
来了	-9.81898
以为	-9.81932
分开	-9.81964
拿起	-9.82033
壁	-9.82038
这两个	-9.82208
▁瑛姑	-9.82229
这许多	-9.8224
之地	-9.82251
说到	-9.82327
牛家村	-9.82404
小姑娘	-9.82443
她们	-9.82614
呆	-9.82825
那女子	-9.82897
另一个	-9.82997
听着	-9.83108
题	-9.83171
托	-9.83243
杨	-9.83314
增	-9.83329
入了	-9.83337
闲	-9.83341
插入	-9.83401
赴	-9.83416
祖师爷	-9.83419
建	-9.83423
桅杆	-9.83424
翻身	-9.83438
险些	-9.83441
浅	-9.83445
绿	-9.83463
心念一动	-9.83473
保护	-9.83475
钢杖	-9.83484
骗	-9.83487
现今	-9.8349
黄姑娘	-9.83546
江	-9.83624
重重	-9.83715
郭靖大喜	-9.83827
我可	-9.83868
之色	-9.83923
手足	-9.83939
不愿	-9.83992
七八	-9.8401
句	-9.84029
杀人	-9.84032
但若	-9.84035
走向	-9.841
就在	-9.84123
连连	-9.84138
定了	-9.84261
样	-9.84348
▁梁子翁	-9.84423
心中一	-9.84442
愿	-9.84447
怀里	-9.8447
家里	-9.84496
交给	-9.84514
你就	-9.8453
开了	-9.84625
圈子	-9.84637
要紧	-9.84749
在她	-9.84818
错了	-9.84903
板	-9.85083
匹	-9.85126
密	-9.85234
段	-9.85287
腿上	-9.85288
你可以	-9.85342
来说	-9.8537
主意	-9.85409
一对	-9.85415
你别	-9.85475
尖	-9.85515
的本事	-9.85567
给人	-9.85658
一口气	-9.85712
很多	-9.85713
好生	-9.85717
皆	-9.85794
占	-9.858
名字	-9.85809
一天	-9.85946
许	-9.86045
世界	-9.86049
扇	-9.86068
术	-9.86096
怨	-9.86132
象	-9.86135
袖	-9.86184
比赛	-9.86185
你怎么	-9.86212
满了	-9.86235
户	-9.86273
残	-9.86364
叶	-9.86393
斯	-9.86398
劳	-9.86404
欺侮	-9.86406
耕	-9.8642
昨晚	-9.86422
宋朝	-9.86422
谭处端	-9.86425
抵御	-9.86428
颜色	-9.8643
东邪	-9.86431
思索	-9.86433
每次	-9.86437
恼怒	-9.86438
尽皆	-9.86443
磕头	-9.86445
待他	-9.8647
拆	-9.86493
斗然	-9.86511
年轻	-9.86545
观看	-9.86579
也会	-9.86594
你师父	-9.86669
二师父	-9.86782
枝	-9.86789
一见	-9.86809
遗	-9.86853
黄金	-9.86884
军士	-9.87103
酒楼	-9.87184
大有	-9.87329
快说	-9.87404
那么你	-9.87425
又见	-9.87448
撒	-9.87537
而行	-9.87602
别说	-9.87603
乃	-9.87629
心思	-9.87679
动物	-9.87779
缸	-9.87786
补	-9.87856
心神	-9.87882
坚	-9.87897
也必	-9.87907
根据	-9.87932
向东	-9.87971
说他	-9.88005
是甚么	-9.88034
结果	-9.88067
让我	-9.88155
对于	-9.88204
下面	-9.88324
尽是	-9.88324
外面	-9.8834
印	-9.88345
华山	-9.88422
存	-9.88444
转过	-9.88539
友	-9.8854
若不	-9.88614
大宋	-9.88731
肩	-9.88819
避免	-9.88892
一会	-9.88894
欢	-9.88894
胡	-9.88968
互	-9.89048
欺	-9.89054
就能	-9.8907
喊	-9.89072
凝	-9.89083
没了	-9.89122
良	-9.89153
本就	-9.89164
修习	-9.89172
诸将	-9.89262
质	-9.89273
饶	-9.89317
笨	-9.89327
樵	-9.89379
务	-9.89415
烂	-9.89418
牙	-9.89422
坑	-9.89423
躬身	-9.8944
忌惮	-9.89445
迟疑	-9.89446
挤	-9.89447
伯伯	-9.89448
继续	-9.89449
不由自主的	-9.89451
撤	-9.89451
亢龙有悔	-9.89455
乘机	-9.89471
任	-9.89522
脱身	-9.89523
蛇杖	-9.89602
合力	-9.89614
习	-9.89626
中毒	-9.89716
不妙	-9.89781
空中	-9.89793
用来	-9.89793
!’	-9.89823
一头	-9.89884
对我	-9.89902
上面	-9.89918
赶来	-9.89919
忽觉	-9.89926
从未	-9.89971
临	-9.9002
两字	-9.90037
要害	-9.90058
生长	-9.90194
邪	-9.90212
你还	-9.90334
前后	-9.90409
每一	-9.9055
船上	-9.90625
得知	-9.90668
转头	-9.90696
发生	-9.90773
狂	-9.90777
变成	-9.90875
起了	-9.90935
上马	-9.90992
一家	-9.91064
有如	-9.9107
肚子	-9.91099
▁只见	-9.91145
了一个	-9.9121
手下	-9.91325
走去	-9.91438
大将	-9.91444
把我	-9.91465
被人	-9.9153
去罢	-9.91646
品	-9.91711
泪水	-9.91732
一切	-9.91824
无论	-9.91887
原来他	-9.9193
出门	-9.91954
醒	-9.91961
遇上	-9.91967
可能是因为	-9.92028
抱住	-9.92032
坏了	-9.92058
打开	-9.92065
表示	-9.92067
驰	-9.92092
几句	-9.92159
▁在	-9.92229
减	-9.92233
能力	-9.92244
张口	-9.92272
岩石	-9.92323
已自	-9.9234
醉	-9.92386
凶	-9.92391
烟	-9.92398
门下	-9.92444
只待	-9.92466
有点	-9.9251
掩	-9.92527
繁	-9.92562
愈来愈	-9.92572
九指神丐	-9.92572
社会	-9.92573
雅	-9.92579
西征	-9.92583
谈论	-9.92587
怪异	-9.92607
本领	-9.92616
取胜	-9.92637
仗着	-9.92641
瞧出	-9.92675
扶起	-9.92713
停步	-9.92744
生性	-9.92748
七子	-9.92778
赐	-9.92827
道理	-9.92864
吓了一跳	-9.92867
知晓	-9.92885
岂不是	-9.92938
已在	-9.92947
这事	-9.92976
输了	-9.93017
一刀	-9.93065
得罪了	-9.93117
也未必	-9.93188
举手	-9.93217
颇	-9.93359
一身	-9.9338
最好	-9.93436
擦	-9.93601
我来	-9.93634
城中	-9.93649
伤人	-9.93767
瞎	-9.93791
转头向	-9.93843
就如	-9.93854
忙问	-9.93901
第三	-9.93909
落入	-9.94061
历	-9.94085
不怕	-9.94174
另一	-9.94432
未曾	-9.94433
巨岩	-9.94661
得住	-9.94716
了么	-9.94725
算是	-9.94738
还在	-9.94886
你把	-9.94899
未必	-9.94945
份	-9.95087
迎面	-9.95165
排	-9.95175
越来越	-9.95214
海中	-9.95365
雨	-9.95375
之情	-9.95393
傻小子	-9.95416
才是	-9.95433
表	-9.9549
窗	-9.95498
息	-9.95538
供	-9.95588
不去	-9.95607
向黄蓉	-9.95672
波	-9.95673
请问	-9.95718
腾	-9.95749
当你	-9.95754
5	-9.95771
夫妇	-9.95779
铺	-9.95792
挖	-9.95799
哑巴	-9.95801
浓	-9.95803
五指	-9.95804
简管家	-9.95804
仔细	-9.95805
二十年	-9.95805
衣衫	-9.95809
泼	-9.9581
眼泪	-9.95815
南帝	-9.95821
曰	-9.95823
比较	-9.95849
上山	-9.9585
故意	-9.95855
特别	-9.9586
那可	-9.95861
何以	-9.95871
逝世	-9.95886
伏在	-9.95917
追兵	-9.95922
拉住	-9.96045
两步	-9.96077
▁不是	-9.96226
就不	-9.96252
跪下	-9.96264
不知如何	-9.96283
大脑	-9.963
怎生	-9.9636
全然	-9.96409
请教	-9.9641
过招	-9.9647
法子	-9.96522
晃动	-9.96616
大军	-9.96668
在这儿	-9.96675
但实际上	-9.96681
待会	-9.96729
不同的	-9.96862
欲待	-9.96869
此后	-9.96946
更不	-9.9698
识	-9.96992
嫁	-9.97029
▁穆易	-9.97084
高声叫	-9.97152
一一	-9.97197
死人	-9.97209
小心	-9.97256
入内	-9.97261
坐在地下	-9.97349
只因	-9.97385
可不是	-9.97389
的故事	-9.97402
要他	-9.97426
赌	-9.97618
实际	-9.97642
永远	-9.97703
尸	-9.97756
所以你	-9.97841
抖	-9.97941
触	-9.97943
这几句话	-9.97958
出生	-9.97995
挡在	-9.98011
下山	-9.98039
已把	-9.98061
海面	-9.98122
笑声	-9.98137
忍	-9.9819
帮众	-9.98298
说来	-9.9837
不便	-9.98495
男子	-9.98512
查	-9.98564
中有	-9.98583
道路	-9.98603
了片刻	-9.98625
囊	-9.98666
穷	-9.98765
歌	-9.98795
练成	-9.98828
福	-9.98846
的影子	-9.98872
飘	-9.98875
专	-9.98946
回家	-9.99001
猫	-9.99037
责	-9.9904
局	-9.99085
九阴白骨爪	-9.99106
奔跑	-9.99108
叔叔	-9.99123
业	-9.99123
夫妻	-9.99125
裘千丈	-9.99134
晕了过去	-9.99137
投降	-9.9914
提供	-9.99141
大伙儿	-9.99147
月亮	-9.99149
下了	-9.99163
细细	-9.99197
侧身	-9.99211
抵	-9.99213
顺着	-9.99248
文字	-9.9925
治疗	-9.99285
全力	-9.99358
那样	-9.99362
的情况	-9.99477
提高	-9.99493
防止	-9.99504
素来	-9.99543
古人	-9.99654
竟也	-9.99657
重伤	-9.99659
也可以	-9.99661
不知他	-9.99816
推开	-9.99898
暗中	-9.9991
我这	-9.99958
而至	-9.99965
一拍	-9.9997
不明	-10.0013
一望	-10.0024
了下去	-10.0025
呼叫	-10.0031
▁那书生	-10.0036
抢到	-10.0037
林中	-10.0037
攻击	-10.0038
席	-10.0039
两年	-10.0049
绳索	-10.0054
▁郭靖心想	-10.0067
眼中	-10.0068
侠义	-10.009
的所在	-10.0094
欧阳锋笑	-10.0097
好不好	-10.01
大小	-10.0102
可就	-10.0104
力气	-10.011
就像	-10.0112
放了	-10.0114
极大	-10.0117
那边	-10.0121
换了	-10.013
环	-10.0134
正中	-10.0136
3	-10.0136
晃	-10.0152
渔	-10.0153
▁陆庄主	-10.0157
又已	-10.0165
降	-10.0169
幸	-10.017
兴	-10.0171
仰	-10.0173
梁	-10.0185
程	-10.0192
原因	-10.0199
一团	-10.0202
拿去	-10.0202
有了	-10.0205
不在	-10.0208
私	-10.0208
迹	-10.0214
你自己	-10.0223
誓	-10.0228
挥出	-10.0228
上一	-10.0235
悟	-10.0235
统	-10.0237
第	-10.0241
你应该	-10.0245
肚	-10.0249
倏	-10.025
续	-10.0251
尔	-10.0252
备	-10.0253
桨	-10.0254
解释	-10.0255
淡	-10.0256
茶	-10.0257
瓦	-10.0257
哈	-10.0257
笑吟吟的	-10.0258
屁股	-10.0258
矮	-10.0259
削	-10.0259
拣	-10.0259
.	-10.026
相互	-10.026
但见他	-10.0261
招术	-10.0262
银子	-10.0262
七怪	-10.0263
张望	-10.0264
相遇	-10.0266
比武招亲	-10.0266
一百	-10.0268
甚至	-10.0269
必然	-10.027
跃开	-10.0271
被称为	-10.0273
四下里	-10.0275
高人	-10.0275
腰里	-10.0276
消失	-10.0276
使出	-10.0282
将下来	-10.0288
你快	-10.0289
马上	-10.0293
明儿	-10.0293
和她	-10.0296
▁韩小莹	-10.0298
着地	-10.0306
竟会	-10.0306
老子	-10.031
是通过	-10.0314
只可惜	-10.0316
竟自	-10.0317
敌军	-10.0318
向北	-10.0319
都说	-10.032
大笑	-10.034
神态	-10.0356
数步	-10.0383
搭	-10.0388
家伙	-10.0389
也只	-10.0395
只是他	-10.0417
理会	-10.042
还没有	-10.0424
始终不	-10.0449
的弟子	-10.0452
才知	-10.0462
吃的	-10.0462
▁黄蓉见	-10.0465
勾	-10.0466
丈	-10.0468
拿着	-10.047
死后	-10.0476
哪能	-10.0476
科	-10.048
当世	-10.0489
窜出	-10.0489
曲三	-10.0489
隐隐	-10.0491
飞身	-10.0513
仇	-10.0515
推出	-10.0516
麻	-10.052
生平	-10.0526
焦木	-10.0534
使劲	-10.0534
道家	-10.0538
浪	-10.0539
向西	-10.0541
情况	-10.0552
暗叫	-10.0554
打我	-10.0554
打到	-10.0555
会不会	-10.0562
一柄	-10.0566
徒儿	-10.0568
南下	-10.057
软猬甲	-10.057
面上	-10.057
卧	-10.0573
译	-10.0581
眉	-10.0583
都会	-10.0584
那少年	-10.0586
些甚么	-10.0588
其余	-10.0591
掠	-10.0591
丝毫不	-10.0594
舌	-10.0595
揭	-10.0601
拨	-10.0601
雷	-10.0604
烟雨楼	-10.0604
连叫	-10.0605
孤	-10.0606
蛮	-10.0606
丧	-10.0607
意思是	-10.0607
贪	-10.0607
这是一个	-10.0607
健	-10.0609
的方式	-10.061
妖	-10.0611
彭	-10.0612
甫	-10.0614
】	-10.0615
胡说八道	-10.0615
欧阳先生	-10.0615
执	-10.0616
招架	-10.0618
数尺	-10.0619
得出	-10.0619
物理	-10.0621
莫非	-10.0624
的小	-10.0625
变色	-10.0625
尽管	-10.0626
均想	-10.063
定神	-10.0633
汉人	-10.0644
学武	-10.0648
如何能	-10.0652
打不过	-10.0653
认得	-10.0658
也就是	-10.0668
之言	-10.0671
带着	-10.0672
知觉	-10.0673
骑马	-10.0682
武林中	-10.0685
单刀	-10.0688
也要	-10.0692
依言	-10.0695
临安	-10.0704
▁郭靖见	-10.0706
救了	-10.0712
退开	-10.0721
使力	-10.0742
叔父	-10.0749
林	-10.075
疑	-10.077
我先	-10.0777
仇人	-10.0777
▁一灯	-10.0781
言道	-10.0782
也都	-10.08
不识	-10.0806
站定	-10.0829
飞舞	-10.083
淋	-10.0831
曾听	-10.084
颈	-10.0859
十余	-10.0862
不上	-10.0871
竖	-10.0873
粉	-10.0879
撕	-10.088
半夜	-10.0882
从此	-10.0888
说罢	-10.0894
水中	-10.0895
再无	-10.0907
违	-10.0907
四周	-10.0914
的模样	-10.0918
乞丐	-10.0922
正常	-10.0926
扣	-10.0934
武林	-10.0942
便已	-10.0942
温	-10.0949
递给	-10.0953
拥	-10.0953
便道	-10.0956
支	-10.0958
要去	-10.096
式	-10.0965
携	-10.0967
望了一眼	-10.0968
倾	-10.0972
君	-10.0972
兄	-10.0976
尘	-10.0976
睡觉	-10.0977
何处	-10.0978
弃	-10.0978
秘	-10.0982
肥	-10.0983
佳	-10.0983
演	-10.0984
比喻	-10.0984
了他的	-10.0985
i	-10.0985
一辈子	-10.0985
木华黎	-10.0985
孙不二	-10.0985
呆呆出神	-10.0985
召	-10.0985
工具	-10.0986
桥	-10.0986
狠辣	-10.0986
▁【	-10.0987
几乎	-10.0987
弯腰	-10.0989
施展	-10.099
假装	-10.0992
治伤	-10.0993
轻易	-10.0993
北京	-10.0995
了几下	-10.0997
王府	-10.0999
便要	-10.0999
听见	-10.1001
渔人	-10.1002
一年	-10.1004
相信	-10.1005
救命	-10.1008
将士	-10.101
抢着	-10.1013
威力	-10.1013
半身	-10.1014
为什么要	-10.1016
也不是	-10.1016
早知	-10.1022
心中大喜	-10.1025
出言	-10.1037
行礼	-10.1051
掷去	-10.1054
救人	-10.1056
其时	-10.106
双脚	-10.106
人类的	-10.1072
快去	-10.1076
轻声	-10.1089
抱起	-10.1099
再行	-10.1102
个人	-10.1104
如飞	-10.1117
从前	-10.1127
大声叫	-10.1139
伤口	-10.1155
怀中	-10.1163
般的	-10.1172
尺	-10.1184
好玩	-10.1185
过程	-10.1186
参	-10.1199
的原因	-10.1212
本是	-10.1213
决不能	-10.1218
不解	-10.1225
丢	-10.1243
每天	-10.1246
夹	-10.1247
方法	-10.1249
府	-10.1249
固	-10.125
郭靖见	-10.1255
数声	-10.1257
出口	-10.1264
最是	-10.128
连声	-10.1286
完颜洪熙	-10.1287
颇有	-10.1291
是不	-10.1294
显然	-10.1298
你需要	-10.1304
老师	-10.1306
甚么事	-10.1309
西域	-10.1311
知她	-10.1313
▁程瑶迦	-10.1314
溪	-10.1319
而不	-10.1319
展开	-10.1321
两条	-10.133
得多	-10.1332
腹	-10.1335
遮	-10.1335
鸟	-10.1337
房中	-10.1339
安排	-10.1344
扳	-10.1345
你先	-10.1345
咽	-10.1355
两只	-10.1355
泪	-10.1355
充	-10.1355
堕	-10.1356
辞	-10.1357
矛	-10.1358
叫化	-10.1359
祖	-10.136
挣扎	-10.1361
魔	-10.1362
驶	-10.1363
态	-10.1363
秀	-10.1364
一碗	-10.1366
只听他	-10.1367
宿	-10.1369
酸麻	-10.1369
羞	-10.1369
9	-10.1369
富	-10.137
横扫	-10.137
卡	-10.137
乖	-10.137
显得	-10.137
坐骑	-10.137
悬	-10.137
轻身功夫	-10.137
黄河四鬼	-10.137
欧阳伯伯	-10.137
凛然	-10.137
武穆遗书	-10.1371
王真人	-10.1371
开始	-10.1372
北丐	-10.1372
号令	-10.1372
知识	-10.1372
乘势	-10.1376
拉着	-10.1376
胡子	-10.1377
雕儿	-10.1379
不该	-10.1379
真实	-10.138
阵法	-10.138
揭开	-10.1383
酒菜	-10.1383
挂	-10.1383
之功	-10.1387
明日	-10.1389
掌风	-10.1397
确实	-10.1398
出神	-10.1398
该当	-10.14
军中	-10.1401
自知	-10.1405
四字	-10.1405
所传	-10.1407
骗人	-10.1408
将郭靖	-10.1409
不绝	-10.1414
这就	-10.1414
部下	-10.1416
一部	-10.1417
料知	-10.1419
爪	-10.1421
当下将	-10.1429
折扇	-10.1436
层	-10.1438
官人	-10.1439
在水中	-10.1444
向着	-10.1446
辨	-10.1453
无力	-10.1455
郭靖却	-10.1457
部分	-10.146
▁只听得	-10.146
追来	-10.1461
空气	-10.1463
这一来	-10.1472
一箭	-10.1482
每人	-10.1482
▁不会	-10.1483
与黄药师	-10.1493
赢	-10.1498
语言	-10.151
▁郭靖与黄蓉	-10.1511
当作	-10.1512
过于	-10.1526
黄蓉叹	-10.1532
生了	-10.1543
店	-10.1544
而是因为	-10.1554
又有甚么	-10.1559
死在	-10.1565
去世	-10.1566
山峰	-10.1566
紧急	-10.1572
好啦	-10.1587
说完	-10.1595
规矩	-10.1597
浸	-10.1602
甩	-10.1603
花剌子模	-10.1604
向她	-10.1605
是对	-10.1609
这招	-10.1609
吞	-10.161
院	-10.1614
它的	-10.1615
数招	-10.1621
老婆	-10.1621
智	-10.1631
胆	-10.1633
男人	-10.1656
药物	-10.1658
闭	-10.1668
既已	-10.1683
存在	-10.1683
擒	-10.1683
犹	-10.1696
寸	-10.1702
蒙古军	-10.1702
小说	-10.1703
不起	-10.1707
闷	-10.1713
练了	-10.1713
递	-10.1715
究	-10.1723
不小	-10.1727
地上	-10.1733
送给	-10.1733
三天	-10.1734
昏	-10.1735
有的	-10.1736
获	-10.1738
拾起	-10.1741
认为	-10.1743
率领	-10.1744
吸收	-10.1748
策	-10.1753
考虑	-10.1757
丑	-10.1758
诚	-10.176
这番话	-10.1761
决计	-10.1761
赤	-10.1762
豪	-10.1763
金娃娃	-10.1764
告	-10.1764
慰	-10.1765
一双	-10.1765
肌肉	-10.1766
网	-10.1766
梅	-10.1766
朗	-10.1766
天罡北斗阵	-10.1766
侠	-10.1766
薄	-10.1767
疏	-10.1769
丹	-10.1769
编	-10.1769
不多时	-10.1769
之旁	-10.177
陈	-10.177
咳嗽	-10.177
木筏	-10.177
拦阻	-10.1771
斥	-10.1771
努力	-10.1771
燃烧	-10.1771
男女	-10.1772
女婿	-10.1772
信息	-10.1773
脚步声响	-10.1773
且慢	-10.1774
大踏步	-10.1775
寻找	-10.1775
小艇	-10.1775
铁掌	-10.1775
解药	-10.1775
可怜	-10.1776
王道长	-10.1776
发掌	-10.1777
拚命	-10.1778
招呼	-10.178
沉重	-10.1781
我和	-10.1782
扶着	-10.1787
无礼	-10.1789
可以通过	-10.1789
依着	-10.1792
念头	-10.1793
可别	-10.1799
彭连虎等	-10.18
只剩下	-10.1801
砰的一声	-10.1802
打死	-10.1807
创口	-10.1815
迅捷	-10.1816
郭靖笑	-10.1817
这傻小子	-10.182
桃花岛上	-10.1825
知道了	-10.1828
心情	-10.183
过的	-10.1831
垂	-10.1833
不着	-10.1836
反正	-10.1838
或是	-10.1848
我家	-10.1853
自然是	-10.1854
在自己	-10.1856
感觉	-10.1856
遇上了	-10.1862
但这	-10.1865
势必	-10.1867
这么说	-10.1868
放心	-10.1875
之命	-10.1879
倒退	-10.1884
分手	-10.1892
先后	-10.1897
不明白	-10.1899
派人	-10.1906
杆	-10.1906
周伯通笑	-10.191
喷	-10.1926
▁拖雷	-10.1936
命他	-10.1945
金人	-10.1946
▁如果你	-10.1956
这可	-10.1957
浑	-10.1958
奔出	-10.1964
你想	-10.1966
艺	-10.1968
衣袖	-10.1977
手脚	-10.1977
逼得	-10.1977
我妈	-10.1977
候	-10.1977
就可	-10.1978
猛力	-10.1984
戴	-10.1984
▁韩宝驹	-10.1985
失了	-10.1991
e	-10.1992
也真	-10.2
共有	-10.2003
疑心	-10.2006
瘦	-10.201
越是	-10.2015
飞起	-10.2016
断了	-10.2041
也不用	-10.2046
摔倒	-10.205
的孩子	-10.2063
令人	-10.2068
一层	-10.2072
忧	-10.2072
说明	-10.2088
几次	-10.2088
不下	-10.2088
这两人	-10.209
▁为什么	-10.2091
汉子	-10.2093
写的	-10.2096
瞧见	-10.2099
帝	-10.2104
又不	-10.2125
类	-10.2125
旁边	-10.2126
路上	-10.2128
真正的	-10.2128
决意	-10.2132
父女	-10.2132
奸贼	-10.2133
答允	-10.2144
舟	-10.2151
的一部分	-10.2152
自幼	-10.2156
技	-10.216
老前辈	-10.216
映	-10.2161
雾	-10.2162
氧气	-10.2164
凑	-10.2165
了半天	-10.2165
感激	-10.2165
咱	-10.2165
恼	-10.2166
一枝	-10.2171
握住	-10.2172
瓶	-10.2176
镇	-10.2177
捕	-10.2177
承	-10.2178
脾气	-10.2179
处理	-10.2179
脉	-10.2179
杂	-10.2179
暴	-10.218
冻	-10.218
烈	-10.2181
颜	-10.2182
丽	-10.2184
忠	-10.2184
屎	-10.2185
暖	-10.2186
磨	-10.2186
矣	-10.2186
犬	-10.2186
网络	-10.2186
控制	-10.2187
呸	-10.2187
盆	-10.2187
男性	-10.2187
刘处玄	-10.2187
锋兄	-10.2187
吊	-10.2187
破绽	-10.2188
一阳指	-10.2188
联系	-10.2188
疾病	-10.2188
挽	-10.2188
跃起身来	-10.2188
身受重伤	-10.2188
显示	-10.2188
忍耐不住	-10.2189
现代	-10.2189
商量	-10.2189
支持	-10.219
犹似	-10.219
良机	-10.219
同样	-10.2191
镜子	-10.2191
压力	-10.2191
注意	-10.2191
语音	-10.2191
一事	-10.2192
数次	-10.2192
绝技	-10.2195
对头	-10.2197
桃花岛主	-10.2199
灵动	-10.22
哪敢	-10.22
成亲	-10.22
她身子	-10.2201
相交	-10.2201
郭靖忙	-10.2201
好汉	-10.2202
身穿	-10.2203
悬崖	-10.2204
嘴里	-10.2204
死亡	-10.2206
独自	-10.2207
山东	-10.2208
大会	-10.2208
一副	-10.2209
之余	-10.2209
剑法	-10.221
变招	-10.221
相似	-10.2214
我们不能	-10.2215
亲生	-10.2225
肿	-10.2228
十八	-10.223
穿着	-10.2231
一听	-10.2232
一挥	-10.2233
影子	-10.2234
惊叫	-10.2236
纵跃	-10.2237
破了	-10.224
飞奔	-10.224
号角	-10.2243
着实	-10.2244
竟能	-10.2245
额头	-10.2247
钉	-10.2247
消息	-10.2255
生死	-10.226
这套	-10.2265
归云庄	-10.2271
暗想	-10.2274
累得	-10.2274
还给	-10.2277
好笑	-10.2281
珠	-10.2284
他在	-10.2289
黄药师的	-10.2293
倚	-10.2297
日本	-10.2297
的法门	-10.2298
但想	-10.2299
不算	-10.2303
有所	-10.2306
平时	-10.2306
让她	-10.2309
心事	-10.232
了一顿	-10.233
见黄蓉	-10.2337
这些人	-10.2338
华山论剑	-10.2338
我师哥	-10.2342
袭	-10.2352
和你	-10.2361
好人	-10.2369
那是甚么	-10.2372
怎么会	-10.2375
既是	-10.2382
二十	-10.2386
挥手	-10.2386
住手	-10.2391
愕然	-10.2392
心中却	-10.2393
果见	-10.2394
人影	-10.2404
几步	-10.2406
定会	-10.2407
升	-10.2408
的形状	-10.241
不让	-10.2424
请你	-10.2432
好兄弟	-10.2435
格格	-10.2443
不弱	-10.2445
应该是	-10.2447
变成了	-10.2449
跌倒	-10.2451
握着	-10.2453
竹杖	-10.2457
握	-10.2468
说出	-10.2468
挡住	-10.2473
有此	-10.2474
植物	-10.2475
打在	-10.2477
作用	-10.2478
贫	-10.2488
缚	-10.2497
腕	-10.2502
向右	-10.2504
不够	-10.2519
相识	-10.2522
之一	-10.2522
急奔	-10.2535
不敢再	-10.2536
一呆	-10.254
题目	-10.2544
找不到	-10.2548
但这并不意味着	-10.2565
的时间	-10.2565
缺	-10.2567
岩	-10.2569
▁马钰	-10.2571
童	-10.2574
舱	-10.2587
拿住	-10.2587
皇	-10.2588
亡	-10.2594
族	-10.2596
走罢	-10.2598
美貌	-10.26
逆	-10.2601
产品	-10.2601
魂	-10.2606
洞中	-10.2609
永	-10.2611
牌	-10.2612
打狗棒	-10.2613
洪	-10.2613
皇宫	-10.2614
价	-10.2615
公主	-10.2615
罗	-10.2616
裘	-10.2617
妇	-10.2617
溅	-10.2617
欧阳	-10.2618
丘	-10.2618
敲	-10.2619
符	-10.2619
煮	-10.2619
阻拦	-10.262
描述	-10.2621
猪	-10.2621
购买	-10.2621
你老人家	-10.2621
医院	-10.2622
玄	-10.2622
楼梯	-10.2622
技术	-10.2622
嗤的一声	-10.2622
》、《	-10.2623
奔驰	-10.2623
闭目	-10.2623
食指	-10.2623
唐	-10.2623
摇了摇头	-10.2623
学校	-10.2623
转过身来	-10.2623
我瞧	-10.2623
电影	-10.2624
忽必烈	-10.2624
大叔	-10.2624
周师兄	-10.2624
这部	-10.2624
精妙	-10.2625
一颗	-10.2627
门户	-10.2627
柔声	-10.2627
打扮	-10.2628
马匹	-10.2628
灯火	-10.2628
或许	-10.2629
医	-10.2629
士卒	-10.263
紧紧	-10.2634
留神	-10.2634
腰带	-10.2638
放入	-10.2638
咽喉	-10.264
跟随	-10.264
给他们	-10.2641
马道长	-10.2641
物事	-10.2642
五个	-10.2642
一段	-10.2642
土地	-10.2646
不安	-10.2647
猛地	-10.2648
那武官	-10.265
你来	-10.2653
有趣	-10.2654
向黄药师	-10.2664
点点头	-10.2667
干吗	-10.2667
力道	-10.2671
心愿	-10.2671
高声	-10.2675
使的是	-10.2677
瞧去	-10.2678
接受	-10.2686
在手	-10.2698
饶了	-10.27
一套	-10.2704
有害	-10.2712
没人	-10.2712
谁也	-10.2718
半截	-10.2727
厕所	-10.2738
好奇	-10.2739
果真	-10.274
比之	-10.274
不妨	-10.275
弟弟	-10.2755
学会了	-10.2755
就只	-10.2756
毒手	-10.2766
左脚	-10.2771
但在	-10.2773
伤势	-10.2781
明天	-10.2784
她爹爹	-10.2784
抹	-10.2789
颈中	-10.2789
害死了	-10.279
潜	-10.2791
下楼	-10.2792
再问	-10.2795
掷出	-10.2796
如此说	-10.2799
学得	-10.2805
不已	-10.2811
三招	-10.2817
插在	-10.2829
阻	-10.2831
一动	-10.2833
手段	-10.2833
怀孕	-10.2833
无可	-10.2836
使者	-10.2841
天天	-10.2842
崖	-10.2849
可是我	-10.2864
瞧得	-10.2868
能量	-10.287
树枝	-10.2879
也无法	-10.2885
了三	-10.2887
有一	-10.2889
放开	-10.2889
又不是	-10.2894
可要	-10.2894
不敌	-10.2895
不行	-10.2896
7	-10.2912
而上	-10.2915
衫	-10.2921
坐了	-10.2926
功能	-10.2927
没能	-10.2948
十多	-10.2952
因为你	-10.2954
时时	-10.2954
哪有	-10.2958
幼时	-10.297
暗自	-10.297
长矛	-10.2976
罩	-10.298
那马	-10.298
竟不	-10.2982
▁尹志平	-10.2985
好不	-10.2986
仗	-10.2993
拚	-10.2994
斤	-10.3007
的一个	-10.3021
亭	-10.3022
扭	-10.3022
计算	-10.3023
岂	-10.3024
对自己	-10.3029
叉	-10.3029
虫	-10.3032
营	-10.3035
若无	-10.3036
浮	-10.3037
黑暗中	-10.3037
更无	-10.3042
接住	-10.3044
向郭靖道	-10.305
则是	-10.305
他要	-10.3053
患	-10.3054
敌手	-10.3056
设	-10.3057
悔	-10.3061
一句话	-10.3063
扰	-10.3063
抗	-10.3063
不放	-10.3063
剧	-10.3064
痒	-10.3065
某	-10.3065
埋	-10.3067
吵	-10.307
壮	-10.307
盒	-10.3071
市	-10.3073
袋	-10.3074
政	-10.3075
嘿嘿	-10.3075
英雄好汉	-10.3075
暗暗心惊	-10.3076
R	-10.3076
梅师姊	-10.3076
全真诸子	-10.3076
醋	-10.3076
s	-10.3076
尝	-10.3076
笑嘻嘻的	-10.3077
不知如何是好	-10.3077
贼汉子	-10.3077
又惊又怒	-10.3078
辛苦	-10.3078
周师叔	-10.3078
彭寨主	-10.3079
偷袭	-10.3079
汉语	-10.3079
拚斗	-10.308
各种	-10.308
酒杯	-10.308
金银	-10.3081
抚摸	-10.3081
顺势	-10.3081
黑影	-10.3081
号称	-10.3081
关节	-10.3082
老虎	-10.3082
片刻间	-10.3083
帐外	-10.3085
耳听得	-10.3085
亲自	-10.3086
偏偏	-10.3087
老是	-10.3088
半步	-10.3089
黑色	-10.3089
书生	-10.309
老帮主	-10.3091
高举	-10.3096
大叫一声	-10.3096
之计	-10.3097
万分	-10.3099
杀手	-10.3103
来不及	-10.3106
一交	-10.3111
抓起	-10.3112
转念	-10.3114
过得	-10.312
对她	-10.3121
当地	-10.3121
哪里还有	-10.3131
当的一声	-10.3134
一堆	-10.3148
问起	-10.315
走开	-10.3153
的妻子	-10.3157
那位	-10.3158
拦	-10.316
由于	-10.3164
送了	-10.3165
周围	-10.3176
在郭靖	-10.3179
天地	-10.3179
大汗的	-10.3181
已极	-10.3194
一群	-10.3195
可不能	-10.3198
飞去	-10.32
到得	-10.3205
水面	-10.3207
而非	-10.3207
▁这里的	-10.3217
而起	-10.3221
天空	-10.323
下令	-10.3243
金帐	-10.3245
海水	-10.3246
帮中	-10.3247
饿	-10.3252
抛下	-10.3252
我自己	-10.3252
一带	-10.3256
不想	-10.326
少了	-10.3264
向下	-10.3271
提防	-10.3275
杀他	-10.3284
自有	-10.3297
岂不	-10.3306
干净	-10.3309
愈是	-10.331
众人都	-10.3311
难得	-10.3311
挣	-10.3311
脑袋	-10.3315
头颈	-10.3324
娘	-10.3327
的经文	-10.3333
设备	-10.3337
答话	-10.3347
山洞	-10.3348
乃是	-10.3352
好看	-10.3362
速度	-10.3367
救你	-10.3369
想着	-10.3374
滴	-10.3375
不意	-10.3383
来去	-10.3387
在中国	-10.3401
绕着	-10.3411
不等	-10.3414
小的	-10.3416
难道是	-10.3423
在地上	-10.3431
▁段天德	-10.3432
而下	-10.3437
你既	-10.3438
是从	-10.344
古代	-10.344
脚上	-10.3441
运动	-10.3444
可是他	-10.3447
够	-10.3447
开口	-10.345
灭了	-10.3461
盲	-10.3468
焦急	-10.3476
岛	-10.3478
过了良久	-10.348
取决于	-10.3483
不远	-10.3488
毙	-10.3488
抢过	-10.3489
果然是	-10.3489
俩	-10.3491
起身	-10.3492
出掌	-10.3499
约莫	-10.3499
两声	-10.35
一扬	-10.35
殿	-10.3513
屈	-10.3517
棒法	-10.3519
筹	-10.3524
就可以	-10.3525
娃娃	-10.3528
孙	-10.3529
恰	-10.353
这么多	-10.3532
得罪	-10.3532
数百	-10.3535
净	-10.3537
状态	-10.3539
树上	-10.354
援	-10.3541
避过	-10.3542
挟	-10.3542
区	-10.3544
截	-10.3544
鲜	-10.3546
因素	-10.3546
神智	-10.3548
访	-10.355
章	-10.3551
瞒	-10.3551
t	-10.3551
c	-10.3552
r	-10.3552
此言一出	-10.3552
惊喜交集	-10.3552
衰	-10.3552
涂	-10.3552
合撒儿	-10.3553
讯息	-10.3553
惭愧	-10.3553
谦	-10.3553
老弟	-10.3553
防备	-10.3553
面面相觑	-10.3553
粘	-10.3553
零	-10.3553
狼狈	-10.3553
惊惶	-10.3553
老天爷	-10.3553
阻止	-10.3553
洪恩师	-10.3553
富贵	-10.3553
竹签	-10.3554
安慰	-10.3554
继承	-10.3554
挣脱	-10.3554
顷刻间	-10.3554
操作	-10.3554
的名头	-10.3554
铁桨	-10.3554
具体	-10.3554
包含	-10.3555
黄夫人	-10.3555
偷偷	-10.3556
围攻	-10.3559
刘	-10.356
抵挡不住	-10.356
必须	-10.356
暗算	-10.3562
生存	-10.3562
身高	-10.3562
夹着	-10.3563
养伤	-10.3565
自负	-10.3566
只要你	-10.3567
上岸	-10.3568
当胸	-10.357
身分	-10.3571
内劲	-10.3571
遗书	-10.3572
挥动	-10.3572
此言	-10.3574
以致	-10.3574
按照	-10.3575
骂我	-10.3575
暗暗叫苦	-10.3576
军马	-10.3577
空明拳	-10.358
缚住	-10.3582
再打	-10.3584
杖头	-10.3591
只消	-10.3592
诸人	-10.3595
如果你的	-10.3596
郭靖又	-10.3605
足下	-10.3611
客人	-10.3613
几下	-10.3618
左肩	-10.3618
这是因为	-10.362
八人	-10.3621
书房	-10.3623
进了	-10.3634
快走	-10.3634
把他	-10.3641
情况下	-10.3641
四师父	-10.3646
拳脚	-10.3667
人马	-10.3669
不应该	-10.368
从怀中取出	-10.3685
结成	-10.3688
拱手	-10.3692
甚是得意	-10.3693
走路	-10.3697
又要	-10.3698
科学	-10.3706
相对	-10.371
传给	-10.3712
大海	-10.3716
情感	-10.3724
毒药	-10.3726
等等	-10.3727
机会	-10.3739
还道	-10.3741
与她	-10.3757
必能	-10.3759
月光	-10.3765
几天	-10.3771
不胜	-10.3773
在半空	-10.3774
问他	-10.3776
却听	-10.3781
我给你	-10.3787
命人	-10.3789
突见	-10.3797
无用	-10.3806
把这	-10.3809
逃命	-10.3813
▁如果	-10.3814
起初	-10.3815
的头	-10.3818
是了	-10.3824
小王	-10.3839
得快	-10.3841
所有的	-10.3844
多了	-10.385
不见了	-10.386
或者其他	-10.3864
哪知他	-10.3874
再去	-10.3886
了过去	-10.3891
余人	-10.3891
让人	-10.3891
擒拿	-10.3892
一个女子	-10.3893
猛向	-10.3906
要吃	-10.3916
朱聪等	-10.3927
被欧阳锋	-10.3931
在后	-10.3932
打去	-10.3932
建议	-10.394
数十名	-10.3941
他武功	-10.3951
了过来	-10.3957
三下	-10.3957
与欧阳锋	-10.3958
都要	-10.396
不中	-10.3964
6	-10.3971
咸	-10.3981
锁	-10.3982
叫她	-10.3984
据	-10.3987
幼	-10.3988
大大	-10.3988
招招	-10.399
一闪	-10.3993
黄蓉微笑	-10.3996
与洪七公	-10.3997
捧	-10.4
柴	-10.4003
数十年	-10.4005
预	-10.4007
田	-10.401
到底是	-10.4012
禁	-10.4013
篇	-10.4015
奸	-10.4015
羽箭	-10.4016
驾	-10.4021
徒弟	-10.4026
缝	-10.4027
桌上	-10.4028
产	-10.4029
年龄	-10.4033
钢	-10.4033
将那	-10.4033
又怕	-10.4035
懒	-10.4035
史	-10.4036
庙	-10.4036
瓜	-10.4038
超	-10.4039
练武	-10.404
膝	-10.4041
大人	-10.4042
愁	-10.4044
扁担	-10.4045
爽	-10.4045
灰	-10.4047
不忍	-10.4047
李	-10.4047
熬	-10.4047
惧	-10.4047
款	-10.4047
遣	-10.4048
裹	-10.4048
冤	-10.4049
驱	-10.4049
冰凉	-10.4049
末	-10.405
8	-10.4051
墨	-10.4051
义弟	-10.4051
口腔	-10.4051
碧	-10.4051
履	-10.4052
惯	-10.4052
C	-10.4052
秒	-10.4052
嘿	-10.4052
皇爷	-10.4052
研究	-10.4052
朝廷	-10.4052
计议	-10.4053
放声大哭	-10.4053
赤老温	-10.4053
迅速	-10.4053
旭烈兀	-10.4053
秦桧	-10.4053
本身	-10.4053
您老人家	-10.4053
歪	-10.4053
睁开眼	-10.4053
郝大通	-10.4053
蓬的一声	-10.4054
服务	-10.4054
考试	-10.4054
盘旋	-10.4054
怀疑	-10.4054
说不定	-10.4054
嘴巴	-10.4055
众丐	-10.4055
迎接	-10.4056
顶上	-10.4056
万万	-10.4056
尚且	-10.4056
呼呼	-10.4057
岂非	-10.4057
活着	-10.4057
发展	-10.4057
了开去	-10.4057
并且	-10.406
这位姑娘	-10.4061
深厚	-10.4061
绝招	-10.4061
怪文	-10.4062
意识	-10.4063
恶斗	-10.4063
心肠	-10.4064
无穷	-10.4064
恭恭敬敬的	-10.4064
山谷	-10.4066
危急中	-10.4067
小腹	-10.4068
枪法	-10.4069
敌兵	-10.407
大骇	-10.4074
三次	-10.4074
这是一种	-10.4074
骷髅	-10.4075
这个词	-10.4075
对敌	-10.4079
进攻	-10.408
转眼	-10.4083
脱手	-10.4083
那里	-10.4084
其实是	-10.4085
呆了半晌	-10.4086
小孔	-10.4086
的吗	-10.409
常常	-10.4092
述说	-10.4093
转头对	-10.4095
又何必	-10.4096
问我	-10.4096
苦头	-10.4097
下杀手	-10.4097
王子	-10.4098
你在	-10.41
包裹	-10.4103
究竟	-10.4105
往往	-10.4106
大金	-10.4107
一字	-10.4109
铁掌山	-10.4111
关心	-10.4111
也没有	-10.4111
用劲	-10.4112
方能	-10.4119
常人	-10.4121
手持	-10.4121
忽然想起	-10.4122
念着	-10.4123
御厨	-10.4126
双双	-10.4132
的味道	-10.4132
快来	-10.4133
碰到	-10.4135
胜了	-10.414
到这里	-10.4143
变得	-10.4144
这一次	-10.4151
一脚	-10.4153
跨	-10.4158
点了	-10.416
稀	-10.416
提气	-10.4167
出招	-10.417
的脸	-10.4173
一晃	-10.4177
船头	-10.4185
在牛家村	-10.4187
出力	-10.4192
她在	-10.4195
与人	-10.42
掌心	-10.4202
拆了	-10.4204
下落	-10.4204
但听得	-10.4206
没事	-10.4211
钢针	-10.4212
十倍	-10.4214
除非	-10.4218
抓住了	-10.4219
声中	-10.422
景	-10.422
未能	-10.4225
喀喇一声	-10.4226
贴	-10.4249
又再	-10.4252
好意	-10.4257
一扯	-10.4261
含义	-10.4262
太湖	-10.427
▁郭啸天	-10.4271
嘉兴	-10.4278
数人	-10.4279
o	-10.4289
出洞	-10.429
▁那渔人	-10.4293
学会	-10.4297
虽有	-10.4313
了些	-10.4316
仰天	-10.4318
四十	-10.432
写着	-10.4322
是好	-10.4323
桃花岛的	-10.4324
放手	-10.4325
尚在	-10.4327
决定的	-10.4332
跪	-10.4335
威名	-10.4341
也不怕	-10.4363
你倒	-10.4374
好处	-10.4375
却被	-10.4376
乡	-10.4387
有许多	-10.4395
瞧在	-10.4399
每个	-10.44
交流	-10.4401
都能	-10.4406
害人	-10.441
肩上	-10.4415
帐中	-10.4418
真正	-10.4423
猛往	-10.4424
郭靖一怔	-10.4428
右腿	-10.4432
怕他	-10.4439
记住	-10.4443
他知	-10.4454
设法	-10.4458
牵了	-10.4459
岸	-10.4463
胸前	-10.4474
那晚	-10.4477
后退	-10.4479
对你	-10.4481
而是指	-10.4485
走得	-10.449
已到	-10.4494
臭小子	-10.4499
夫人	-10.451
住在	-10.4511
有多	-10.4514
只想	-10.4526
退后	-10.4533
束	-10.4533
一株	-10.4534
热闹	-10.4536
逐	-10.4541
立刻	-10.455
打中	-10.4551
面门	-10.4552
柱	-10.4553
分钟	-10.4553
去啦	-10.4553
革	-10.4556
嚼	-10.456
辱	-10.4561
英	-10.4562
殊	-10.4563
危	-10.4563
余下	-10.4564
戏	-10.4565
形成	-10.4569
叠	-10.4569
给了	-10.457
胖	-10.457
寺	-10.4571
现象	-10.4574
摇晃	-10.4575
博	-10.4575
酣	-10.4575
财	-10.4576
附	-10.4576
辩	-10.4576
扎	-10.4576
绞	-10.4577
嘛	-10.4577
罕	-10.4577
纳	-10.4577
抄	-10.4577
岳父	-10.4578
愧	-10.4578
荆	-10.4579
细菌	-10.4579
苍	-10.4579
博尔忽	-10.4579
狼	-10.4579
陡	-10.4579
阔阔出	-10.4579
贤	-10.4579
穆姊姊	-10.4579
斡赤斤	-10.4579
依稀	-10.458
电池	-10.458
诀窍	-10.458
宛似	-10.458
岂肯	-10.458
规则	-10.458
奥妙	-10.458
四杰	-10.4581
二丐	-10.4581
收拾	-10.4581
菜肴	-10.4581
条件	-10.4581
感染	-10.4582
一个筋斗	-10.4584
贵由	-10.4584
竟尔	-10.4584
十二	-10.4584
从未见过	-10.4584
构成	-10.4585
蓦地里	-10.4585
树干	-10.4586
苦思	-10.4586
经常	-10.4587
呼喝	-10.4587
打听	-10.4588
君子	-10.4589
书画	-10.459
惊觉	-10.4591
打仗	-10.4591
饭菜	-10.4592
手术	-10.4592
武功天下第一	-10.4593
扇子	-10.4593
父子	-10.4594
总有	-10.4595
不休	-10.4595
桌子	-10.4595
南方	-10.4596
限制	-10.4602
畔	-10.4604
荒山	-10.4604
一震	-10.4604
再加上	-10.4605
遗命	-10.4605
请两位	-10.4606
见到了	-10.4606
强敌	-10.4606
竟似	-10.4606
误解	-10.4606
相接	-10.4607
必当	-10.4611
马钰道	-10.4611
长刀	-10.4613
天色	-10.4616
这老儿	-10.4619
并不是指	-10.4619
生得	-10.4624
看清楚	-10.4625
半边	-10.4628
正面	-10.4633
音乐	-10.4634
抢了	-10.4638
大量	-10.4639
不要脸	-10.4644
一大	-10.4644
郭靖喜	-10.4646
动静	-10.4648
三字	-10.4649
现出	-10.465
大呼	-10.4651
难当	-10.4659
磕	-10.4659
面子	-10.466
语声	-10.4661
稍有	-10.4661
▁华筝	-10.4662
好容易	-10.4666
山下	-10.4668
一举	-10.4671
重大	-10.4673
当先	-10.4674
相会	-10.4678
倍	-10.4686
洞口	-10.4692
裤子	-10.4694
挥掌	-10.4695
怎么还	-10.4697
所学	-10.4705
也不敢	-10.4708
雪地	-10.471
的情景	-10.4712
将过来	-10.4715
没用	-10.4719
从中	-10.472
倒转	-10.4727
大家都	-10.4729
痛得	-10.4736
于他	-10.4738
不大	-10.4739
哪里还	-10.4739
黄蓉拍手	-10.4741
大树	-10.475
提到	-10.475
称呼	-10.4751
丐帮中	-10.4753
让开	-10.4756
这一日	-10.4758
时刻	-10.4766
难道你	-10.4771
打死了	-10.4793
身披	-10.4793
与你	-10.4795
和郭靖	-10.4795
我帮	-10.4797
每个人	-10.4797
他胸口	-10.48
三步	-10.4801
声势	-10.4801
天上	-10.4804
先行	-10.4809
形状	-10.4823
长大	-10.4829
高明	-10.4829
发了	-10.483
向欧阳锋	-10.4831
与自己	-10.4833
放眼	-10.4836
再看	-10.4836
他见	-10.4849
山上	-10.4849
不喜欢	-10.485
不致	-10.4859
买了	-10.4866
到哪里去	-10.4872
起疑	-10.4878
让他们	-10.488
不可以	-10.4881
玉箫	-10.4882
▁一灯大师	-10.4884
的掌力	-10.4889
我只	-10.4895
一件事	-10.4897
公子爷	-10.4899
是你的	-10.4899
完了	-10.4905
瞎了	-10.4906
未到	-10.4911
扑上	-10.4937
郭靖依言	-10.4939
也不必	-10.494
说的是	-10.4947
蛋	-10.4949
不停	-10.495
告诉	-10.4966
需求	-10.4975
有关	-10.4976
默	-10.4978
也能	-10.4979
而过	-10.4983
他手腕	-10.499
了怎么办	-10.5002
无论你	-10.5004
疯	-10.5005
于此	-10.5012
郭靖听了	-10.5013
不幸	-10.5016
了不少	-10.5019
▁沙通天	-10.5023
深知	-10.5034
一边	-10.5035
赶上	-10.5038
人多	-10.504
枯木	-10.5052
凡	-10.5058
晓	-10.5063
街	-10.5063
大起	-10.5063
赵王府	-10.5064
葬	-10.5067
的位置	-10.5068
当晚	-10.5072
效	-10.5073
将这	-10.5074
旨	-10.5074
到此处	-10.5077
▁郭	-10.5092
留在	-10.5095
烫	-10.5097
我没	-10.5099
▁鲁有脚	-10.51
进门	-10.5102
多谢	-10.5105
听我	-10.5106
氏	-10.5115
基	-10.5117
展	-10.5118
逝	-10.5118
卫	-10.512
阁	-10.5121
向洪七公	-10.5121
放屁	-10.5124
铜	-10.5125
诀	-10.5125
糖	-10.5126
赠	-10.5127
唇	-10.5127
旋	-10.5127
烦	-10.5128
证	-10.5129
催	-10.5129
砸	-10.5129
餐	-10.5131
虑	-10.5131
优	-10.5132
畏	-10.5133
疲	-10.5133
请他	-10.5133
诡计	-10.5134
坟	-10.5134
烤	-10.5134
也速该	-10.5134
豪杰	-10.5134
滋味	-10.5134
旗杆	-10.5134
恋	-10.5135
老朽	-10.5135
蒙哥	-10.5135
塔	-10.5135
经验	-10.5135
玩耍	-10.5135
雌雕	-10.5135
保证	-10.5135
袜子	-10.5135
容貌	-10.5136
戏弄	-10.5136
习惯	-10.5136
万料不到	-10.5136
惶急	-10.5136
银鞭	-10.5136
布袋	-10.5136
哑仆	-10.5137
官府	-10.5137
救援	-10.5137
鹰	-10.5138
附近	-10.5138
可能会导致	-10.5138
狂奔	-10.5138
价值	-10.5138
病毒	-10.5138
忽尔	-10.5138
电视	-10.5139
卫生	-10.514
拆招	-10.514
弓箭	-10.5141
礼物	-10.5141
刃	-10.5143
发足	-10.5145
阵势	-10.5145
甜	-10.5147
护身	-10.5147
身不由主的	-10.5147
理论上	-10.5147
制作	-10.5147
提醒	-10.5148
杀了他	-10.5148
摇动	-10.5148
借力	-10.5149
读书	-10.5149
亲随	-10.515
途中	-10.5151
爱女	-10.5151
进步	-10.5153
日光	-10.5154
后来怎样	-10.5154
陪着	-10.5156
白色	-10.5156
一时之间	-10.5156
烛火	-10.5158
不妥	-10.5158
吃过	-10.5165
欢呼	-10.5166
利用	-10.5166
径自	-10.5166
相同	-10.5169
众兄弟	-10.5169
那老者	-10.5169
自觉	-10.5172
师徒	-10.5173
割断	-10.5177
密室	-10.5179
一排	-10.5181
日间	-10.5181
只须	-10.5183
最多	-10.5185
坏人	-10.5186
笑容	-10.5189
空手	-10.5189
方才	-10.5191
无法通过	-10.5193
如风	-10.5198
教导	-10.5201
不待	-10.5206
发作	-10.5208
懂	-10.521
胸中	-10.521
成分	-10.5213
海底	-10.5225
哪里有	-10.5226
撕下	-10.5226
求你	-10.5231
素知	-10.5231
站起来	-10.5235
的法子	-10.5239
的尸身	-10.5241
这并不是	-10.5245
是不能	-10.5255
不顾	-10.5259
到桃花岛	-10.5263
嚷	-10.527
这女子	-10.5279
认出	-10.5279
自当	-10.528
角色	-10.5281
均是	-10.5282
皮肤	-10.5287
就把	-10.5288
小叫化	-10.5289
赶去	-10.5297
中都	-10.5299
火折	-10.5301
需要通过	-10.5301
在先	-10.5302
峰顶	-10.5303
一点儿	-10.5305
藏在	-10.531
踏上	-10.5312
三分	-10.5313
在江湖上	-10.5313
以前	-10.5316
外人	-10.5323
枪杆	-10.5325
无已	-10.5326
难道他	-10.5328
崖顶	-10.5337
用功	-10.5339
了一下	-10.5348
决不会	-10.5353
数学	-10.5353
难过	-10.5354
师兄弟	-10.5359
再过	-10.5362
将出来	-10.5363
笑话	-10.5365
的言语	-10.5366
对你说	-10.5371
会使	-10.5379
这场	-10.5383
别让	-10.5385
对面	-10.5385
有什么	-10.5386
从来不	-10.5386
要将	-10.5386
那船	-10.5391
清楚	-10.5393
竟被	-10.5396
想到了	-10.5399
不知是	-10.5406
这样一	-10.5406
十招	-10.5412
黄蓉见他	-10.5412
数丈	-10.5415
使开	-10.5418
一物	-10.5426
好在	-10.544
竟有	-10.5448
店中	-10.5449
你若	-10.5457
胜过	-10.5458
死的	-10.5458
招手	-10.5468
鞋子	-10.5469
一个个	-10.5484
胡闹	-10.5485
湖中	-10.5493
我可不	-10.5497
伤他	-10.5498
决无	-10.5506
飞步	-10.5517
▁三人	-10.5524
出了一	-10.5526
的伤势	-10.5528
有可能	-10.5528
郭靖奇	-10.5538
走远	-10.5541
等人	-10.5544
我跟你	-10.5546
解下	-10.5547
跃下	-10.5548
经中	-10.5553
怒气	-10.5554
他身后	-10.5557
受了伤	-10.5558
他手掌	-10.5574
数里	-10.5578
文化	-10.5582
拦在	-10.5585
逃到	-10.5588
代表	-10.5588
倏地	-10.5592
我跟	-10.5595
加害	-10.5596
不难	-10.5602
失去	-10.5607
叫他们	-10.5612
这路	-10.5612
法门	-10.5612
愿意	-10.5618
出帐	-10.5621
倒在地	-10.5622
爷	-10.5634
团	-10.5635
那时候	-10.5636
为他	-10.5636
却哪里	-10.5645
屁	-10.5646
却不是	-10.5647
俯	-10.5648
都在	-10.5649
了解	-10.565
的神色	-10.5661
糟	-10.5662
家传	-10.5663
却在	-10.5664
斗得	-10.5664
轻轻一	-10.5665
罢了	-10.5665
蛇毒	-10.5666
练到	-10.5672
是正常的	-10.5675
安答	-10.5679
过程中	-10.568
是由于	-10.5681
尝试	-10.5682
他心中	-10.5685
得甚是	-10.5687
几年	-10.5688
大仇	-10.5688
椅	-10.5689
甲板	-10.569
却仍	-10.5694
肘	-10.5696
臣	-10.57
蓉	-10.5701
将下去	-10.571
猎	-10.5711
草原上	-10.5711
嘶	-10.5712
粪	-10.5713
押	-10.5714
赵王	-10.5717
大汉	-10.5717
兽	-10.5718
池	-10.5718
伴	-10.5719
结构	-10.5719
勿	-10.5719
娇	-10.5719
啄	-10.572
忌	-10.5721
级	-10.5721
屠	-10.5721
乌	-10.5721
吸引	-10.5722
翠	-10.5722
松柴	-10.5722
翼	-10.5722
货	-10.5722
二氧化碳	-10.5722
江南七侠	-10.5722
郎	-10.5722
铜尸	-10.5722
饱	-10.5722
字诀	-10.5722
恕罪	-10.5722
M	-10.5722
弦	-10.5722
赔	-10.5722
消费者	-10.5722
硬生生	-10.5722
答案	-10.5722
意料之外	-10.5722
小沙弥	-10.5722
普通	-10.5722
窥	-10.5722
神龙摆尾	-10.5723
说不出的	-10.5723
一个时辰	-10.5723
自言自语	-10.5723
队伍	-10.5723
锦袍	-10.5723
灶王爷	-10.5723
记忆	-10.5723
凿	-10.5723
u	-10.5723
俄罗斯	-10.5723
双颊	-10.5723
鲁长老	-10.5723
支撑	-10.5723
狡猾	-10.5723
便宜	-10.5723
服侍	-10.5724
充满	-10.5724
微一	-10.5724
勉力	-10.5724
烦恼	-10.5724
韩	-10.5724
阿	-10.5724
寄	-10.5724
勤	-10.5724
形式	-10.5724
炉	-10.5724
领悟	-10.5724
质量	-10.5725
忠义	-10.5725
气恼	-10.5726
那道士	-10.5726
喘气	-10.5726
钢刀	-10.5726
拉屎	-10.5726
长春子丘处机	-10.5726
宰相	-10.5726
身材	-10.5727
料不到	-10.5727
摇摇头	-10.5727
刺去	-10.5727
阴毒	-10.5727
脉门	-10.5728
一旦	-10.5728
舱门	-10.5728
公鸡	-10.5728
逢	-10.5728
意思	-10.5728
兔子	-10.5729
君山	-10.5729
行人	-10.5729
机关	-10.5731
技能	-10.5732
师伯	-10.5732
埋伏	-10.5733
半年	-10.5733
居住	-10.5734
脑门	-10.5734
蛇阵	-10.5735
鲁	-10.5735
怎么样	-10.5735
感情	-10.5736
长鞭	-10.5738
扶住	-10.5739
样子	-10.574
火车	-10.574
猛击	-10.574
之仇	-10.5741
未及	-10.5742
马蹄	-10.5742
两块	-10.5743
又听	-10.5743
侧头	-10.5745
日夜	-10.5746
造成	-10.5748
化学	-10.5748
他却	-10.5749
兵法	-10.5752
绕过	-10.5752
动弹	-10.5755
那就是	-10.5755
丐帮的	-10.5756
乘着	-10.5756
难道我	-10.5757
方面	-10.5758
性别	-10.576
二字	-10.5762
拍出	-10.5764
双拳	-10.5768
像是	-10.577
风扇	-10.577
难受	-10.5771
同行	-10.5773
自由	-10.5774
左腕	-10.5774
又听得	-10.5774
转动	-10.5774
一推	-10.5775
未来	-10.5778
已久	-10.578
喉头	-10.5782
不小心	-10.5784
两下	-10.5788
传来	-10.5789
有限	-10.5791
来着	-10.5792
悠悠醒	-10.5792
两根	-10.5792
药丸	-10.5795
心想这	-10.5795
的穴道	-10.5795
等到	-10.5796
草丛	-10.5797
误会	-10.5798
我再	-10.5804
过了一阵	-10.5808
好事	-10.5812
在此处	-10.5816
打伤	-10.5817
几名	-10.5819
两次	-10.5826
两人都是	-10.5826
送到	-10.5831
它们的	-10.5832
快步	-10.5833
竹林	-10.5835
便了	-10.5836
放着	-10.5837
只把	-10.5837
军官	-10.5838
放松	-10.5838
免得	-10.5842
全真教的	-10.5851
有心	-10.5853
守在	-10.5859
亲热	-10.586
好大	-10.5862
你就是	-10.5863
不开	-10.5867
好姑娘	-10.587
黄蓉与郭靖	-10.5876
着了	-10.5883
将起来	-10.5886
三师父	-10.5888
沙通天等	-10.5897
追去	-10.5901
竖起	-10.5902
▁陆乘风	-10.5911
武功虽	-10.5913
含有	-10.5914
打倒	-10.5917
产生的	-10.5918
见是	-10.592
第四	-10.5927
20	-10.5928
同去	-10.5932
平日	-10.5934
已被他	-10.5934
听他说	-10.594
耳中	-10.595
无所	-10.595
四位	-10.5968
我不是	-10.5975
若要	-10.5984
怎么说	-10.5988
有几	-10.5988
绳	-10.5988
便走	-10.5992
教人	-10.5999
一翻	-10.6001
一味	-10.6008
▁不能	-10.6012
的人物	-10.6016
却仍是	-10.602
柳	-10.6021
你干么	-10.6024
小船	-10.604
是非	-10.6049
左侧	-10.6055
珍	-10.6064
微微一	-10.607
他日	-10.6072
彩	-10.6075
竟未	-10.6075
在桌上	-10.6081
的环境	-10.6085
可能需要	-10.6091
又怎能	-10.6097
钻出	-10.6101
虽多	-10.6105
不救	-10.6106
说要	-10.6108
着火	-10.6112
他二人	-10.6113
地球的	-10.6113
对着	-10.6114
说些甚么	-10.6116
慢慢的	-10.6117
天下第一	-10.6121
走上	-10.6123
那也	-10.6125
六七	-10.6127
可真	-10.6132
哥	-10.6136
既不	-10.6139
十多年	-10.614
却有	-10.6145
上卷	-10.6148
一个是	-10.6149
这时见	-10.6153
得手	-10.6153
上峰	-10.6154
明白了	-10.6171
的手臂	-10.6173
石子	-10.6173
之间的	-10.6175
这就是	-10.6178
不出来	-10.618
往他	-10.6181
坐船	-10.6182
缓步	-10.6183
何不	-10.6184
严重	-10.6184
转了	-10.6187
但听	-10.6195
不能再	-10.6201
益	-10.6203
七个	-10.6209
一个小	-10.6211
威风	-10.6212
乘坐	-10.6215
写了	-10.6215
毁	-10.6219
方位	-10.6221
因为它	-10.6226
见面	-10.6228
通常是	-10.6228
我若	-10.6232
丐	-10.6237
辈	-10.6241
了一层	-10.6241
都想	-10.6246
荒	-10.6261
那老人	-10.6266
料到	-10.6266
4	-10.6268
圣	-10.6268
也得	-10.6273
石上	-10.6282
▁哲别	-10.6287
赵王爷	-10.6288
按住	-10.6295
竟没	-10.6295
恢复	-10.6295
乎	-10.6296
自小	-10.6301
纯	-10.6301
即使你	-10.6306
往外	-10.631
臂上	-10.6312
灌	-10.6314
好手	-10.6314
崩	-10.6318
某些	-10.6319
唯	-10.632
房门	-10.6322
际	-10.6323
两者	-10.6323
那女人	-10.6325
恐	-10.6327
转念一想	-10.6327
了一遍	-10.6327
一跃	-10.6328
置	-10.6329
旗	-10.633
射出	-10.6332
痴	-10.6333
付	-10.6333
骆驼	-10.6334
拿来	-10.6335
雷电	-10.6335
甘	-10.6336
掀	-10.6337
斧	-10.6338
焦	-10.6339
醉仙楼	-10.6339
桶	-10.634
作甚	-10.634
豹	-10.634
界	-10.634
如山	-10.6341
蓦地	-10.6341
侵	-10.6341
规	-10.6341
挂念	-10.6341
齿	-10.6342
侍	-10.6342
佛	-10.6342
案	-10.6342
采	-10.6343
赛	-10.6343
再不	-10.6343
姓杨	-10.6343
歇歇	-10.6343
在帐中	-10.6343
攀	-10.6344
穆	-10.6344
剪	-10.6345
冠	-10.6346
营帐	-10.6346
录	-10.6346
嗤嗤	-10.6347
寡	-10.6347
全真六子	-10.6347
畅	-10.6347
蚊子	-10.6347
QQ	-10.6347
涨	-10.6347
拗	-10.6347
在线等	-10.6347
B	-10.6347
嘱咐	-10.6347
寂寞	-10.6347
敏	-10.6348
游泳	-10.6348
咕	-10.6348
威胁	-10.6348
不动声色	-10.6348
哭泣	-10.6348
依赖	-10.6348
柯大侠	-10.6348
顽皮	-10.6348
泉	-10.6348
乖乖的	-10.6348
九花玉露丸	-10.6348
郑重	-10.6348
宝贝	-10.6348
肋骨	-10.6348
叫了声	-10.6348
手下留情	-10.6348
1.	-10.6348
先天功	-10.6348
吕文德	-10.6348
市场	-10.6348
剧烈	-10.6349
三头蛟侯通海	-10.6349
姿势	-10.6349
观察	-10.6349
煮熟	-10.6349
丈余	-10.6349
情急之下	-10.6349
满腔	-10.6349
乌云	-10.6349
枕	-10.6349
护卫	-10.6349
洒	-10.6349
禀报	-10.6349
凶险	-10.6349
经济	-10.6349
默然	-10.635
厮杀	-10.635
颠倒	-10.635
制造	-10.635
千万不可	-10.635
连连点头	-10.635
六侠	-10.635
支持不住	-10.6351
郭兄	-10.6351
碎裂	-10.6351
血迹	-10.6351
惊惧	-10.6351
半句	-10.6351
毒计	-10.6351
凄然	-10.6352
饮食	-10.6352
威震	-10.6352
夹击	-10.6352
这句话的意思是	-10.6352
拆解	-10.6352
捡起	-10.6352
三弟	-10.6353
刚好	-10.6353
胡乱	-10.6353
沉思	-10.6353
逐渐	-10.6353
作品	-10.6354
旋转	-10.6354
主要是	-10.6355
全球	-10.6355
杨兄弟	-10.6355
呼的一声	-10.6355
你用	-10.6356
腰刀	-10.6357
形势	-10.6358
美国	-10.6358
花树	-10.6359
坏事	-10.6359
连环	-10.6359
设定	-10.636
白雪	-10.6361
跟前	-10.6361
华筝公主	-10.6362
久了	-10.6363
东边	-10.6363
联手	-10.6364
插口	-10.6366
起伏	-10.6367
过人	-10.6367
以免	-10.6368
又是一	-10.6369
参与	-10.637
为什么没有	-10.6371
脑子	-10.6374
吃亏	-10.6375
帮手	-10.6375
表面	-10.6375
所授	-10.6377
怒火	-10.6378
军事	-10.6379
运起	-10.6382
高高	-10.6382
小道士	-10.6383
归天	-10.6383
温度	-10.6386
打量	-10.6386
甚多	-10.6387
兵马	-10.6388
自称	-10.639
逃开	-10.6392
船夫	-10.6393
几声	-10.6394
你可以尝试	-10.6395
你们两个	-10.6396
做的	-10.6397
何时	-10.6399
发明	-10.64
所说的	-10.64
留着	-10.6401
有效	-10.6403
村中	-10.6407
黄蓉见	-10.641
▁眼见	-10.6411
的女儿	-10.6411
两家	-10.6416
喜爱	-10.6418
我在这里	-10.6421
岩洞	-10.6423
又急	-10.6431
床上	-10.6433
暗暗好笑	-10.6433
部位	-10.6442
提了	-10.6442
多年	-10.6444
毫无	-10.6446
那红马	-10.6447
种种	-10.6451
。’”	-10.6459
方便	-10.646
你知道	-10.6464
不知去向	-10.6468
挡开	-10.6468
在蒙古	-10.6468
黄蓉已	-10.647
身手	-10.6471
大丈夫	-10.6473
去买	-10.6473
这样做	-10.6474
你们的	-10.6475
自身	-10.6477
已抓住	-10.6478
甚么人	-10.6483
用以	-10.6492
时日	-10.65
终身	-10.6503
在地	-10.6505
这一拳	-10.6506
只道他	-10.6507
色道	-10.651
成一团	-10.6522
守住	-10.6522
山石	-10.6524
一麻	-10.6527
细看	-10.6532
撞在	-10.6533
出声	-10.6534
一世	-10.6538
几日	-10.6546
哪知道	-10.6546
气喘	-10.6555
无异	-10.6556
打出	-10.6561
又说	-10.6563
小腿	-10.6568
稳稳	-10.6568
就在这	-10.6571
急叫	-10.6571
怎知	-10.6573
班	-10.6576
拍拍	-10.6582
自己也	-10.6583
万里	-10.6589
强大	-10.659
上船	-10.6591
关头	-10.6601
三十	-10.6602
他身子	-10.6616
在他身上	-10.6622
撞到	-10.6623
手背	-10.6625
传说	-10.6629
这少年	-10.6629
世间	-10.6637
奔向	-10.6638
不迟	-10.6648
喊声	-10.6649
掘	-10.6654
的含义	-10.6655
张开	-10.6659
前去	-10.666
与梅超风	-10.6664
物品	-10.6666
团团	-10.6668
的手腕	-10.667
躺在	-10.6674
想想	-10.6675
课	-10.6679
一个大	-10.6682
斜眼	-10.6688
常说	-10.6692
阳光	-10.6707
小女	-10.671
又没	-10.6716
如电	-10.6718
求见	-10.6719
笑着	-10.6723
胆子	-10.6732
抽出	-10.6738
披	-10.6739
的招数	-10.6743
武官	-10.6749
婆	-10.6754
以防	-10.6758
话说	-10.6761
巨响	-10.6767
来回	-10.6785
可能是因为你	-10.6787
了七八	-10.6788
不得不	-10.6791
她肩头	-10.6793
他想	-10.6798
千里	-10.6801
以来	-10.6803
还会	-10.6805
我知道	-10.6805
瞧那	-10.6808
醒来	-10.6812
这条	-10.6814
午	-10.6825
每个人都	-10.6829
朱聪笑	-10.6833
他既	-10.6837
个人的	-10.6842
一击	-10.6845
金针	-10.6846
对黄蓉	-10.6849
尊重	-10.6852
掌中	-10.6857
袭击	-10.6862
你是谁	-10.6862
矮胖子	-10.6877
这个过程	-10.6878
数字	-10.6879
多端	-10.688
肠	-10.6881
这门	-10.6886
伐	-10.6888
我叫	-10.6888
向旁	-10.6888
想不出	-10.6889
那天	-10.6889
好朋友	-10.6891
都被	-10.6892
只怕他	-10.6895
卒	-10.6898
知是	-10.6899
把你	-10.6901
黄蓉急	-10.6901
被郭靖	-10.691
千万	-10.691
探头	-10.6911
尾巴	-10.6914
是人	-10.6915
有余	-10.6922
▁侯通海	-10.6923
有异	-10.6927
而笑	-10.6928
还手	-10.6929
▁当晚	-10.693
导	-10.6933
一拉	-10.6936
去看	-10.6936
他虽	-10.6946
黑雕	-10.6947
始	-10.6952
休	-10.6954
副	-10.6959
樵子	-10.6959
叫化子	-10.6962
员	-10.6967
十几	-10.697
述	-10.6976
我用	-10.6977
不尽	-10.6981
轿	-10.6983
铸	-10.6983
征	-10.6985
人丛中	-10.6987
草原	-10.6989
口气	-10.699
未免	-10.6993
快快	-10.6994
镜	-10.6995
船舱	-10.6995
牧	-10.6995
寨主	-10.6995
宁	-10.6997
隆	-10.6997
悉	-10.6998
怎敢	-10.7
12	-10.7002
京	-10.7003
扮	-10.7004
沿	-10.7004
勒	-10.7006
染	-10.7006
兰	-10.7008
蒸	-10.7008
旁观	-10.7008
继	-10.7009
老爷	-10.701
恭	-10.701
七位	-10.7011
风响	-10.7011
炭	-10.7012
丁	-10.7012
延	-10.7012
践	-10.7012
辣	-10.7012
污	-10.7012
蹄声	-10.7012
涉	-10.7013
蓝	-10.7013
搞	-10.7013
阔	-10.7013
伞	-10.7013
仁	-10.7013
夏	-10.7013
脂	-10.7013
胆敢	-10.7013
牛肉	-10.7013
炒	-10.7013
锋锐	-10.7014
敛	-10.7014
无可奈何	-10.7014
做声不得	-10.7014
燕	-10.7014
明明白白	-10.7014
G	-10.7014
疗伤	-10.7014
豆	-10.7014
10	-10.7014
乌鸦	-10.7014
长叹一声	-10.7014
曹操	-10.7014
侮辱	-10.7014
秦	-10.7014
撒谎	-10.7014
粒	-10.7014
驴	-10.7014
上官剑南	-10.7014
紫	-10.7015
韩世忠	-10.7015
苦苦思索	-10.7015
诡异	-10.7015
棺木	-10.7015
研习	-10.7015
霜	-10.7015
万人队	-10.7015
庄主	-10.7015
叫甚么名字	-10.7015
加快脚步	-10.7015
填	-10.7015
筋疲力尽	-10.7015
焦木大师	-10.7015
无耻	-10.7015
血液	-10.7015
追踪	-10.7016
情绪	-10.7016
黯然	-10.7016
背诵	-10.7016
装束	-10.7016
还得	-10.7016
铁舟	-10.7016
照顾	-10.7016
谭	-10.7016
但郭靖	-10.7016
通常指的是	-10.7016
愤怒	-10.7017
摸索	-10.7017
吉	-10.7017
勒马	-10.7017
宁定	-10.7017
释	-10.7017
思考	-10.7017
方始	-10.7017
折磨	-10.7017
哨	-10.7017
毙命	-10.7018
急促	-10.7018
大理国	-10.7018
挡架	-10.7018
剧毒	-10.7018
部属	-10.7019
危难	-10.702
小侄	-10.702
尊师	-10.702
学艺	-10.702
本帮	-10.702
图画	-10.702
大喝一声	-10.702
反复	-10.7021
程二人	-10.7021
十五掌	-10.7022
面具	-10.7022
湖边	-10.7022
宝物	-10.7022
大不相同	-10.7022
三名	-10.7022
杨家	-10.7023
混乱	-10.7023
无论如何	-10.7023
修练	-10.7023
共同	-10.7024
老夫	-10.7024
猛恶	-10.7025
信义	-10.7025
昂然	-10.7025
有心要	-10.7026
我有	-10.7026
那胖子	-10.7027
潮水	-10.7029
钢刺	-10.7029
读四人	-10.7029
周身	-10.7029
疾忙	-10.703
舞动	-10.7031
猛听得	-10.7031
之策	-10.7032
空间	-10.7032
相公	-10.7034
姬妾	-10.7034
牧人	-10.7034
减少	-10.7035
兼之	-10.7035
拜见	-10.7036
围墙	-10.7037
获取	-10.7037
膀	-10.7037
当场	-10.7037
0	-10.7039
平台	-10.704
树皮	-10.704
反击	-10.704
全真	-10.7041
电力	-10.7041
啸	-10.7041
屋顶	-10.7042
获得	-10.7043
心脏	-10.7043
嘉兴府	-10.7047
人员	-10.7048
组成的	-10.7048
一匹	-10.705
朱	-10.7052
亲眼见到	-10.7053
两掌	-10.7055
等方式	-10.7056
的女子	-10.7062
最高	-10.7065
我就是	-10.707
急了	-10.7072
右肩	-10.7073
在梦中	-10.7074
四弟子	-10.7078
▁次日	-10.7078
天黑	-10.7078
擒住	-10.7078
亲手	-10.708
缓缓的	-10.7081
用兵	-10.7081
你会	-10.7083
小鸡	-10.7083
发招	-10.7084
之道	-10.7085
那樵子	-10.7087
金子	-10.7087
气得	-10.7087
占了	-10.7091
好胜	-10.7091
谁要你	-10.7092
的工作	-10.7094
位置	-10.7095
▁4	-10.7098
闻到	-10.7099
随从	-10.7099
正确	-10.71
击去	-10.7102
会被	-10.7106
杀得	-10.7108
一楞	-10.7111
上乘	-10.7114
之理	-10.7116
真好	-10.7116
拿住了	-10.7117
不合	-10.7117
了不起	-10.7121
郭靖摇头	-10.7124
快乐	-10.713
长发	-10.7131
好孩子	-10.7136
不知这	-10.7137
武功高强	-10.7142
下卷	-10.7142
-	-10.7148
大感	-10.7157
眉头	-10.7158
60	-10.716
这首	-10.7161
不听	-10.7165
石弹	-10.7173
人品	-10.7174
两人同时	-10.7175
可没	-10.7179
说了一遍	-10.7187
却听得	-10.7188
十六	-10.7192
皱	-10.7192
但求	-10.7196
救他	-10.7198
树林	-10.7198
抬起	-10.7201
郭靖一呆	-10.7201
你不能	-10.7206
瞪眼	-10.7207
穿了	-10.7208
向自己	-10.7218
洞里	-10.7221
着急	-10.7222
的一响	-10.7226
h	-10.7226
一抖	-10.7227
师父们	-10.7229
年幼	-10.723
举刀	-10.7236
有甚么好	-10.724
的手掌	-10.7242
中国的	-10.7249
出房	-10.7251
射去	-10.7251
心起	-10.7252
额	-10.7254
是不是就	-10.7257
摸出	-10.726
所说	-10.7261
从而	-10.7263
具有	-10.7265
实际的	-10.7275
这时听	-10.7277
▁颜烈	-10.7277
这日	-10.7295
攻敌	-10.7302
不定	-10.7318
向丘处机	-10.7323
心中大	-10.7324
跟她	-10.7325
接了	-10.7325
新的	-10.7326
五六	-10.7336
更多的	-10.7343
山后	-10.7347
掌上	-10.7351
来得	-10.7352
▁那公子	-10.7354
法儿	-10.7357
以便	-10.7361
羊腿	-10.7368
▁那道人	-10.737
驰到	-10.7373
一向	-10.7379
咱们就	-10.738
▁这可能是因为你	-10.7385
回手	-10.7387
逼他	-10.739
加上	-10.739
小时	-10.7395
内容	-10.7402
五年	-10.7413
死得	-10.7414
射来	-10.7416
概念	-10.742
但她	-10.7427
等我	-10.7435
来历	-10.7439
真相	-10.744
颗	-10.7449
六个	-10.7451
冲出	-10.7458
胁下	-10.7458
在桃花岛	-10.7461
三掌	-10.7462
以此	-10.7473
来看	-10.7475
来自	-10.7479
摸到	-10.7481
失手	-10.7485
土山	-10.7489
她想	-10.7497
黄蓉心想	-10.7502
水性	-10.7507
已死	-10.7511
传你	-10.7519
脱下	-10.7523
会神	-10.7526
有很多	-10.7528
眼珠	-10.753
钟	-10.7537
极难	-10.7539
逞	-10.7553
还未	-10.7556
击在	-10.756
十九	-10.7567
还不是	-10.7578
数年	-10.7581
叫喊	-10.7582
传出	-10.7587
问题	-10.7589
眼见郭靖	-10.759
尸体	-10.7591
皱眉	-10.7592
最爱	-10.7598
地面	-10.7602
红色	-10.7605
清水	-10.7606
看出	-10.761
好教	-10.7616
闪开	-10.7627
了几句	-10.763
站立	-10.7635
达到	-10.764
楼下	-10.7645
股	-10.7646
身在	-10.7647
张十五	-10.765
讯	-10.7653
抢在	-10.7659
的变化	-10.7661
某种	-10.7662
对准	-10.7664
我侄儿	-10.7667
领了	-10.767
途	-10.7671
若是不	-10.7672
版	-10.7672
伯父	-10.7674
就得	-10.7674
个大	-10.7679
好说	-10.7685
并不意味着	-10.7689
饮料	-10.7689
允	-10.769
长索	-10.7691
数万	-10.7692
再加	-10.7692
担	-10.7698
夸	-10.7705
公子	-10.7707
怪不得	-10.7708
人头	-10.7708
写得	-10.7709
松林	-10.7711
特殊	-10.7711
弟	-10.7711
颤	-10.7712
劫	-10.7713
暂	-10.7714
漫	-10.7715
兔	-10.7715
貌	-10.7715
眼看	-10.7716
老鼠	-10.7717
箫	-10.7719
赖	-10.7719
啥	-10.772
传到	-10.772
占上风	-10.7721
闹着玩	-10.7721
泡	-10.7723
校	-10.7723
诈	-10.7723
都不禁	-10.7723
哑	-10.7724
敷	-10.7724
乞	-10.7724
哀	-10.7724
判	-10.7725
维	-10.7725
赵	-10.7726
棵	-10.7726
歉	-10.7726
奏	-10.7727
孕	-10.7727
尘土	-10.7727
巾	-10.7727
拐	-10.7727
荣	-10.7727
用来形容	-10.7728
劣	-10.7728
丰富	-10.7728
蠢	-10.7728
贱	-10.7728
船舷	-10.7728
订	-10.7728
逗	-10.7728
小妖女	-10.7728
法华寺	-10.7728
在现实生活中	-10.7728
恍然大悟	-10.7728
俘虏	-10.7728
霸	-10.7728
鲜血淋漓	-10.7728
诃额伦夫人	-10.7728
启	-10.7729
跳起身来	-10.7729
公司	-10.7729
怯	-10.7729
泛	-10.7729
2.	-10.7729
品牌	-10.7729
沾	-10.7729
孽	-10.7729
黑暗之中	-10.7729
原子弹	-10.7729
汤祖德	-10.7729
曲灵风	-10.7729
豆腐	-10.7729
逾	-10.7729
艳	-10.7729
防御	-10.7729
咳	-10.7729
泽	-10.7729
3.	-10.7729
梁长老	-10.7729
天璇	-10.7729
郭世兄	-10.7729
侵犯	-10.7729
哑梢公	-10.7729
勉强	-10.773
次晨	-10.773
朕	-10.773
到头来	-10.773
玩意儿	-10.773
毫不理会	-10.773
安危	-10.773
重阳真人	-10.773
训练	-10.773
岳爷爷	-10.773
抢上前去	-10.773
钢叉	-10.773
赌赛	-10.773
生育	-10.773
政治	-10.773
差遣	-10.7731
老僧	-10.7731
滑溜	-10.7731
慌乱	-10.7731
财物	-10.7731
挡格	-10.7731
提升	-10.7731
丰	-10.7731
尤其	-10.7731
了半日	-10.7732
凝目	-10.7732
猛烈	-10.7732
脸上一红	-10.7732
船板	-10.7732
抱拳	-10.7732
五哥	-10.7732
肚皮	-10.7732
公共	-10.7732
单位	-10.7732
克制	-10.7732
咬牙	-10.7733
算帐	-10.7733
康儿	-10.7733
刺客	-10.7733
酸软	-10.7733
铁扇	-10.7734
盖世	-10.7734
统治	-10.7734
望一眼	-10.7734
船只	-10.7734
算计	-10.7734
店家	-10.7734
建立	-10.7735
鸽	-10.7735
剑柄	-10.7735
盼望	-10.7735
梅花	-10.7736
上乘武功	-10.7736
啸声	-10.7736
征服	-10.7736
进境	-10.7737
雪地里	-10.7738
舍不得	-10.7738
高温	-10.7738
兄长	-10.7738
不知她	-10.7738
小辈	-10.7738
阵阵	-10.7739
三尺	-10.7739
困难	-10.7739
更增	-10.774
手帕	-10.774
一枚	-10.774
实非	-10.774
蒙古包	-10.7741
衣物	-10.7741
五位	-10.7741
数量	-10.7742
是基于	-10.7742
相隔	-10.7743
妙法	-10.7743
来来来	-10.7743
等候	-10.7744
反射	-10.7744
虚实	-10.7745
神妙	-10.7745
几招	-10.7745
推举	-10.7746
怒目	-10.7746
老英雄	-10.7747
袖手	-10.7747
得悉	-10.7747
袖子	-10.7747
隙	-10.7748
远不及	-10.7748
意义	-10.7748
玩玩	-10.7748
家数	-10.7748
这副	-10.7749
数月	-10.7749
牵着	-10.775
盘算	-10.775
客气	-10.7751
得干干净净	-10.7753
的却是	-10.7754
忍住	-10.7755
说谎	-10.7755
收势	-10.7757
拆开	-10.7757
从旁	-10.7761
成语	-10.7761
长城	-10.7761
拦住	-10.7762
该死	-10.7764
现下我	-10.7767
并不需要	-10.7767
三声	-10.7768
又将	-10.7768
作了	-10.7771
鬼怪	-10.7771
大雨	-10.7771
指挥	-10.7774
两旁	-10.7775
讲到	-10.7775
小贼	-10.7776
听声音	-10.7777
病人	-10.7778
食用	-10.7779
掠过	-10.7779
然道	-10.7782
既有	-10.7785
郭靖急	-10.7785
一摸	-10.7786
快速	-10.7786
的名号	-10.7787
脸现	-10.7787
黑马	-10.7789
另一人	-10.7789
长老	-10.779
道袍	-10.7791
看起来	-10.7792
惊疑	-10.7794
荒岛	-10.7796
一只手	-10.7797
也无	-10.7801
这是正常的	-10.7801
一十五年	-10.7802
事物	-10.7806
西边	-10.7806
抢上去	-10.7809
大雪	-10.7809
我还	-10.781
一杯	-10.7811
尽头	-10.7811
去瞧瞧	-10.7812
一路上	-10.7812
西毒欧阳锋	-10.7813
打坐	-10.7815
打个	-10.7815
须知	-10.7816
缺口	-10.7818
当前	-10.7819
事先	-10.7822
别怕	-10.7824
自来	-10.7824
没见过	-10.7826
架开	-10.7828
天外	-10.783
这一场	-10.7832
他们是	-10.7838
含笑	-10.7839
有事	-10.784
一剑	-10.7845
快马	-10.7846
尸身	-10.7847
见到他	-10.785
连使	-10.7856
再见	-10.7858
向内	-10.786
真心	-10.7863
这时他	-10.7866
你若不	-10.7868
饿死	-10.7869
之至	-10.7876
那矮胖子	-10.7877
光闪闪	-10.7883
找到了	-10.7884
看着	-10.7886
能不能	-10.7888
的内功	-10.789
崖边	-10.7894
退出	-10.7899
点穴	-10.7899
毫	-10.7901
松手	-10.7902
清清楚楚	-10.7903
了上去	-10.7904
不加	-10.7906
奔近	-10.7907
强行	-10.7908
开来	-10.7909
大腿	-10.792
▁虽然	-10.7921
默默	-10.7922
早有	-10.7924
便有	-10.7924
之能	-10.7928
左首	-10.793
是假的	-10.7934
别的	-10.7934
随即又	-10.7938
的情状	-10.7941
抓去	-10.7942
做甚么	-10.795
有两个	-10.7951
已给	-10.7952
触到	-10.7959
再高	-10.7964
可以用	-10.7966
刷	-10.7968
▁六怪	-10.7974
的过程	-10.7978
三日	-10.7979
你不用	-10.798
瞧不见	-10.7981
听来	-10.7982
一按	-10.7983
惊人	-10.7984
你这小子	-10.7985
是什么	-10.7986
一二	-10.7988
海上	-10.7991
只会	-10.7992
之气	-10.7998
作声	-10.7999
一跳	-10.8001
行了	-10.8002
专门	-10.8005
的那个	-10.8008
去救	-10.8009
前胸	-10.8012
劲道	-10.8016
只求	-10.802
的速度	-10.8023
一队	-10.8026
却无	-10.8027
带到	-10.8029
点儿	-10.8029
▁怎么办	-10.8042
帮我	-10.8044
上前去	-10.8046
黄蓉低声	-10.8049
我且	-10.8057
说说	-10.8059
跟人	-10.8059
得起	-10.8062
大祸	-10.8063
拍手	-10.8064
水声	-10.8072
可得	-10.8072
的威名	-10.8078
一瞧	-10.8078
与杨康	-10.8082
抢出	-10.8082
的道理	-10.8082
的用意	-10.8087
两只手	-10.8088
充电	-10.8091
枪尖	-10.8091
n	-10.8096
石头	-10.8101
直冲	-10.8101
的脚	-10.8102
他自己	-10.8105
▁简长老	-10.8106
门人	-10.8111
柳树	-10.8114
几个人	-10.8121
胜负	-10.8122
劲急	-10.8128
见他神色	-10.8131
齐向	-10.8136
老怪	-10.8137
在意	-10.8139
二来	-10.8142
这声音	-10.8143
这两	-10.8144
教她	-10.8145
的手段	-10.8148
珠宝	-10.8153
次日	-10.8155
上当	-10.8155
▁李萍	-10.8156
金鱼	-10.8167
伸手去	-10.8168
手势	-10.8168
我虽	-10.8168
是蒙古	-10.8169
但见她	-10.817
的对手	-10.8175
有话	-10.8176
你要我	-10.8179
嫁给	-10.8192
抬头望	-10.8192
三年	-10.8193
来救	-10.8198
疾冲	-10.82
老了	-10.82
只见一个	-10.8211
心中甚是	-10.8216
屋子	-10.8232
的衣服	-10.8235
了上来	-10.8237
船身	-10.8237
无伦	-10.8239
叫了起来	-10.8241
喝问	-10.8247
急步	-10.825
丛	-10.8251
分为	-10.8255
交手	-10.8262
一命	-10.8264
来找	-10.8265
拭	-10.8272
感动	-10.8274
进店	-10.8276
已从	-10.8281
情状	-10.8282
奇特	-10.8282
只见那	-10.8288
两个人	-10.8293
又怎	-10.8294
滚开	-10.8294
叹息	-10.8296
也非	-10.83
只听她	-10.8305
一首	-10.8314
挂着	-10.8317
名家	-10.834
一语	-10.8342
极大的	-10.8345
深入	-10.8347
一遍	-10.8352
是天下	-10.8356
因为他们	-10.8357
风流	-10.8367
接触	-10.8379
白纸	-10.8379
找我	-10.8382
御	-10.8383
指尖	-10.8384
如何不	-10.8384
压在	-10.8385
当今	-10.8385
后颈	-10.839
一心	-10.8392
打败	-10.8394
▁那人	-10.8394
领会	-10.8395
腹中	-10.8396
的能力	-10.8398
园	-10.8402
献	-10.8402
临安府	-10.8403
对人体	-10.8404
壁上	-10.8406
店伴	-10.841
热水	-10.8411
是一种比喻	-10.8413
的事情	-10.8422
两句	-10.8425
绊	-10.8427
醒转	-10.8428
的温度	-10.843
向天	-10.8431
怪蛇	-10.8435
攻打	-10.844
枚	-10.8441
舒服	-10.8443
三位	-10.8445
受苦	-10.8447
还有甚么	-10.8451
绝顶	-10.8452
但这时	-10.8457
基本	-10.8457
骇	-10.8459
缘	-10.8459
感诧异	-10.8462
轮	-10.8465
绝无	-10.8466
十余年	-10.847
了一道	-10.8471
济	-10.8471
确定	-10.8471
菱	-10.8472
秋	-10.8473
摊	-10.8474
尸首	-10.8475
瞧不出	-10.8476
兼	-10.8477
将洪七公	-10.8481
传统	-10.8481
老贼	-10.8481
著	-10.8482
结婚	-10.8483
兜	-10.8483
一死	-10.8484
元史	-10.8484
洗澡	-10.8485
绣	-10.8487
享	-10.8487
报答	-10.8488
砖	-10.8488
蹄	-10.8488
寿	-10.8489
耽	-10.8489
耐	-10.8489
暗暗称奇	-10.8489
焦躁	-10.849
冬	-10.849
腔	-10.8491
捷	-10.8491
鲨	-10.8493
西瓜	-10.8493
放在心上	-10.8493
庭	-10.8493
警	-10.8494
搂	-10.8494
庆	-10.8494
胀	-10.8494
迁	-10.8494
扼	-10.8494
饶是	-10.8495
牢	-10.8495
庄丁	-10.8495
扔	-10.8496
锐	-10.8496
贤弟	-10.8496
棍	-10.8496
甚么东西	-10.8497
省	-10.8497
内裤	-10.8497
傍晚	-10.8497
毡	-10.8497
d	-10.8497
定睛看	-10.8497
罚	-10.8497
贺	-10.8497
咖啡豆	-10.8497
票	-10.8497
w	-10.8497
掌握	-10.8497
溃	-10.8497
覆	-10.8497
二哥	-10.8497
炮	-10.8497
电视剧	-10.8497
深湛	-10.8497
侣	-10.8497
叙	-10.8497
卸	-10.8497
单打独斗	-10.8497
A	-10.8498
逍遥游	-10.8498
纵声长笑	-10.8498
O	-10.8498
铎	-10.8498
无意中	-10.8498
奥	-10.8498
梳	-10.8498
聪明伶俐	-10.8498
希望	-10.8498
传播	-10.8498
大惑不解	-10.8498
伯通	-10.8498
粉身碎骨	-10.8498
陶	-10.8498
踹	-10.8498
丁丁	-10.8498
钝	-10.8498
厌	-10.8498
坐起身来	-10.8498
娘娘	-10.8498
成千成万	-10.8498
炼	-10.8498
一模一样	-10.8498
的背影	-10.8498
鸳	-10.8498
书籍	-10.8498
沙漠	-10.8499
面颊	-10.8499
默然不语	-10.8499
报警	-10.8499
基因	-10.8499
专业	-10.8499
摄入	-10.8499
豹夫	-10.8499
宠爱	-10.8499
铁锚	-10.8499
统率	-10.8499
房屋	-10.8499
织	-10.8499
计策	-10.8499
漠北	-10.8499
距离	-10.8499
教育	-10.8499
根基	-10.8499
豁	-10.8499
复杂	-10.8499
穆姑娘	-10.8499
泄漏	-10.85
卓绝	-10.85
马青雄	-10.85
形态	-10.85
不敢怠	-10.85
躺在地下	-10.85
准备	-10.85
竹枝	-10.85
杨家枪法	-10.85
考较	-10.85
勾结	-10.85
规定	-10.85
躺着	-10.85
恁地	-10.8501
丐帮帮主	-10.8501
美丽	-10.8501
功劳	-10.8501
虎虎	-10.8501
整治	-10.8501
神通	-10.8501
参加	-10.8501
转眼间	-10.8501
转眼之间	-10.8502
油灯	-10.8502
洁	-10.8502
反悔	-10.8502
三长老	-10.8503
结义	-10.8503
马桶	-10.8503
软鞭	-10.8503
圆圈	-10.8503
蒙古大军	-10.8503
六王爷	-10.8504
消化	-10.8504
放在桌上	-10.8504
刺激	-10.8504
船尾	-10.8504
准确	-10.8504
催马	-10.8505
葬身	-10.8505
起床	-10.8505
迎敌	-10.8505
石油	-10.8506
护送	-10.8506
为啥	-10.8507
习练	-10.8507
耳边	-10.8507
群蛇	-10.8507
小哥	-10.8507
增强	-10.8508
损伤	-10.8508
渐感	-10.8509
帐幕	-10.8509
性格	-10.8509
战士	-10.8509
先师	-10.8509
实际上是指	-10.8509
伸臂	-10.8509
尽量	-10.851
甚高	-10.851
酒保	-10.851
发抖	-10.851
现身	-10.851
孙子	-10.8511
立足不	-10.8511
化解	-10.8511
走啦	-10.8512
您老	-10.8512
婚	-10.8512
观众	-10.8513
之辈	-10.8513
右拳	-10.8513
半夜里	-10.8513
酒饭	-10.8514
战阵	-10.8514
皇后	-10.8515
惊醒	-10.8515
即令	-10.8516
读者	-10.8516
痛苦	-10.8517
之技	-10.8517
急速	-10.8517
冒犯	-10.8518
之忧	-10.8519
你放心	-10.8519
虚招	-10.852
大惊之下	-10.852
设计的	-10.852
冰柱	-10.8521
避让	-10.8522
恰好	-10.8522
香气	-10.8522
纸上	-10.8523
眼色	-10.8524
存心要	-10.8524
中午	-10.8524
板凳	-10.8526
深深	-10.8527
一批	-10.8527
今后	-10.8529
当初	-10.8532
本门	-10.8532
托住	-10.8534
跃过	-10.8535
是一个比喻	-10.8535
那老儿	-10.8535
这一抓	-10.8535
烟雾	-10.8535
借着	-10.8535
不爱	-10.8536
尚自	-10.8536
恨恨的	-10.8537
只恨	-10.8537
幸得	-10.8538
身子已	-10.8539
要了	-10.854
在归云庄上	-10.8541
热气	-10.8543
割了	-10.8545
服输	-10.8547
又从	-10.8547
忽然间	-10.8549
布置	-10.8549
好吗	-10.8551
墙上	-10.8552
天边	-10.8554
水流	-10.8554
对不起	-10.8556
如果你真的	-10.856
尽力	-10.8563
心跳	-10.8563
有难	-10.8565
几时	-10.8565
好像	-10.8565
你怎知	-10.8566
甚为	-10.857
极高	-10.8571
力大	-10.8571
便欲	-10.8581
往事	-10.8582
内堂	-10.8584
重行	-10.8586
街上	-10.8587
有些人	-10.8588
了大半	-10.8588
一振	-10.8588
过身来	-10.8589
处处	-10.8596
正是黄蓉	-10.8597
抱了	-10.8598
到哪里	-10.8601
得胜	-10.8602
饿了	-10.8602
流传	-10.8605
内部的	-10.8605
走入	-10.8606
如不	-10.8607
▁这日	-10.8608
两头	-10.8609
那也是	-10.861
毁了	-10.8612
人皮	-10.8613
抱住了	-10.8617
料来	-10.8619
自杀	-10.8627
十余丈	-10.8627
心惊	-10.8628
花园	-10.863
的尸体	-10.8642
撞去	-10.8647
结了	-10.8647
一摆	-10.8652
到临	-10.8652
适应	-10.8662
听他说得	-10.8663
合理	-10.8671
建议你	-10.8675
因为在	-10.8678
有甚	-10.8678
不善	-10.8678
并不代表	-10.8681
更为	-10.8687
退避	-10.869
个筋斗	-10.8696
▁江南六怪	-10.8705
并肩	-10.8705
楼上	-10.8705
月光下	-10.8707
但要	-10.871
已近	-10.871
闯进	-10.8712
洪七公哈哈大笑	-10.8719
▁又过	-10.872
的钱	-10.872
好友	-10.872
的需求	-10.8721
洪七公叹	-10.8722
这是我	-10.8722
你没	-10.8726
!!	-10.8727
危急	-10.8728
一心要	-10.8728
料得	-10.8729
瞧这	-10.8731
为你	-10.8732
在此时	-10.8733
不喜	-10.8734
的伤害	-10.8739
郭靖心中	-10.874
他身上	-10.8741
马背	-10.8742
黄蓉心中	-10.8746
▁正	-10.8747
喜欢你	-10.875
想法	-10.8752
你啦	-10.8752
打人	-10.8752
但想到	-10.8753
当此	-10.8758
有谁	-10.8767
的情况下	-10.8772
跌落	-10.8772
自如	-10.8774
头皮	-10.8775
入海	-10.8776
高中	-10.8778
一端	-10.8779
更有	-10.8787
的方法	-10.879
你在这里	-10.8792
踢中	-10.8795
才好	-10.8801
不服	-10.8801
出于	-10.8802
将自己	-10.8805
看看	-10.881
你猜	-10.8812
女性	-10.8815
也不懂	-10.882
怒喝	-10.8825
收了	-10.883
在地下一	-10.8835
不似	-10.8842
十岁	-10.8845
练过	-10.8848
的日子	-10.8849
记挂	-10.885
任你	-10.8851
半天	-10.8861
并不是因为	-10.8867
她知	-10.888
郭靖虽	-10.8881
肚子里	-10.8886
也不禁	-10.889
半空	-10.8903
应用	-10.8905
一夜	-10.8907
伤我	-10.8913
分心	-10.8913
医疗	-10.8918
向南	-10.8918
才把	-10.8918
的意思是	-10.8934
只见欧阳锋	-10.8935
难道还	-10.8943
全都	-10.8951
四个人	-10.8952
娶了	-10.8957
就这么	-10.896
快捷	-10.8964
个手势	-10.8971
他必	-10.8979
的帮助	-10.899
生活中	-10.8996
郭靖怕	-10.8999
中心	-10.9005
这一点	-10.901
跟在	-10.9011
重要的	-10.9011
燕京	-10.9011
及得上	-10.9014
这不是	-10.9022
折了	-10.9028
为之	-10.9029
等他	-10.9029
多次	-10.9038
一揖	-10.9039
水帘	-10.9045
十余招	-10.9047
你大师父	-10.9049
水底	-10.905
睡了	-10.9051
通常会	-10.9053
不能直接	-10.9054
室中	-10.9054
却没	-10.9055
松了	-10.9057
一分	-10.9063
排出	-10.9063
清洁	-10.9066
之所	-10.9068
都吃了一惊	-10.9071
端的	-10.9072
▁全金发	-10.9073
日子	-10.9091
就不会	-10.9099
再斗	-10.9101
学了	-10.9103
脑中	-10.9106
给你们	-10.9107
我是不是	-10.911
谁说	-10.9116
军队	-10.9119
在洞中	-10.912
与周伯通	-10.912
你还不	-10.9122
惯了的	-10.9131
我总是	-10.9132
却非	-10.9134
的存在	-10.9134
郭靖点头	-10.9134
将黄蓉	-10.9135
问她	-10.9135
骷髅头	-10.9135
必可	-10.9138
那孩子	-10.9139
裤	-10.9139
也自	-10.9147
番	-10.9148
进化	-10.915
不容易	-10.9156
十指	-10.9157
怎么能	-10.9161
引起	-10.9163
几人	-10.9167
顶门	-10.9171
这时却	-10.9171
点心	-10.9176
冲杀	-10.9177
眼见他	-10.9186
左边	-10.9188
也就不	-10.9189
踢出	-10.9189
呆呆	-10.919
一棒	-10.9194
收回	-10.9196
十余里	-10.9198
金狗	-10.9199
他对	-10.9201
是无法	-10.9203
大半	-10.9204
叫了一声	-10.9215
材	-10.9216
今儿	-10.9218
▁郭靖知道	-10.9218
靠在	-10.9222
丸	-10.9226
大碗	-10.9233
判断	-10.9236
是中国	-10.9238
楚	-10.9239
下卷经文	-10.924
奔逃	-10.9245
一松	-10.9247
报了	-10.9247
宰	-10.9254
帮你	-10.9254
旁的	-10.9259
盘膝坐在	-10.9262
交好	-10.9262
了几次	-10.9264
适	-10.9266
纵声	-10.9267
枉	-10.9267
剩	-10.9282
母子	-10.9283
奸人	-10.9287
可说	-10.9287
就无法	-10.9288
或能	-10.9292
一言不发	-10.9292
象征	-10.9297
株	-10.9299
妻	-10.93
跌下	-10.9301
至今	-10.9301
逐一	-10.9302
农夫	-10.9302
说也	-10.9303
察	-10.9303
厢	-10.9307
更多	-10.931
服了	-10.931
筋	-10.9311
说给	-10.9311
想起自己	-10.9312
棺材	-10.9313
人人都	-10.9316
睡着	-10.9316
长草	-10.9316
艇	-10.9317
老儿	-10.9317
谷	-10.9318
惜	-10.9319
液	-10.9319
坐定	-10.9321
葫芦	-10.9323
筏	-10.9323
碍	-10.9323
材料	-10.9323
棋	-10.9324
锦	-10.9324
痕	-10.9325
标	-10.9325
奋	-10.9325
贯	-10.9325
钻研	-10.9326
梯	-10.9326
捡	-10.9326
骨灰	-10.9326
我和你	-10.9326
咒	-10.9327
朵	-10.9327
肃	-10.9327
钓	-10.9327
碑	-10.9327
一红	-10.9328
妙手书生	-10.9328
督	-10.9328
扁	-10.9328
呕	-10.9328
钦佩	-10.9329
落英神剑掌	-10.9329
晒	-10.9329
姿	-10.9329
谋	-10.9329
吻	-10.9329
巡	-10.9329
饼	-10.9329
腻	-10.9329
律	-10.933
V	-10.933
僵尸	-10.933
香港	-10.933
沟通	-10.933
貂裘	-10.933
纪念	-10.933
意味着	-10.933
者勒米	-10.933
诏	-10.933
视频	-10.933
同归于尽	-10.933
泊	-10.933
黄蓉嫣然	-10.9331
充耳不闻	-10.9331
类型	-10.9331
罐	-10.9331
疑惑	-10.9331
a	-10.9331
满脸通红	-10.9331
孝	-10.9331
牙膏	-10.9331
沸	-10.9331
--------------	-10.9331
幽	-10.9331
秃	-10.9331
劈空掌	-10.9331
彼	-10.9331
憔悴	-10.9331
韧	-10.9331
李氏	-10.9331
是何等样人	-10.9331
予	-10.9331
伸了伸	-10.9331
八袋弟子	-10.9331
易筋锻骨篇	-10.9331
纹	-10.9331
出其不意	-10.9331
陋	-10.9331
微一沉吟	-10.9331
东南西北	-10.9331
造成伤害	-10.9331
七妹	-10.9331
祭	-10.9331
纠缠	-10.9331
舒畅	-10.9331
四大长老	-10.9331
父女俩	-10.9331
那也罢了	-10.9331
眺望	-10.9331
骤	-10.9331
黑黝黝的	-10.9331
乳	-10.9332
鸡蛋	-10.9332
苏	-10.9332
一男一女	-10.9332
胶	-10.9332
侧身避过	-10.9332
坟墓	-10.9332
艺术	-10.9332
菩萨	-10.9332
裘老前辈	-10.9332
阅读	-10.9332
刑	-10.9332
痊愈	-10.9332
模糊	-10.9332
喀的一声	-10.9332
数十丈	-10.9332
义父	-10.9332
闺女	-10.9332
寂	-10.9332
暴躁	-10.9332
察觉	-10.9332
鼻息	-10.9332
狠狠	-10.9333
尺许	-10.9333
甘愿	-10.9333
抵抗	-10.9333
黄贤弟	-10.9333
凌空	-10.9333
吐纳	-10.9333
境界	-10.9333
应付	-10.9333
背脊	-10.9333
武器	-10.9333
寻访	-10.9333
霎时间	-10.9333
藤枝	-10.9333
昏迷	-10.9333
985	-10.9333
海滩	-10.9333
长寿面	-10.9333
安全锤	-10.9333
驻	-10.9334
六弟	-10.9334
食盒	-10.9334
撰	-10.9334
鼻孔	-10.9334
昔日	-10.9334
调整	-10.9334
分筋错骨手	-10.9334
叫唤	-10.9334
长袍	-10.9334
牛羊	-10.9335
叹了一口气	-10.9335
之约	-10.9335
欺压	-10.9335
上身	-10.9335
老头儿	-10.9335
较量	-10.9335
冒险	-10.9336
石板	-10.9336
进帐	-10.9336
胯下	-10.9336
元朝	-10.9336
筷子	-10.9336
四个儿子	-10.9337
要旨	-10.9337
刻着	-10.9337
流了下来	-10.9337
荷塘	-10.9337
树木	-10.9337
悲痛	-10.9338
携带	-10.9338
久闻	-10.9338
礁石	-10.9338
主角	-10.9338
第一次	-10.9339
关切	-10.934
老板	-10.934
内息	-10.934
哼哼	-10.934
命丧	-10.934
术数	-10.934
观念	-10.934
借势	-10.934
平常	-10.934
论剑	-10.9341
的匕首	-10.9341
索性	-10.9341
蛇群	-10.9341
过了好一阵	-10.9341
丧命	-10.9342
我知道啦	-10.9342
电话	-10.9342
宗教	-10.9342
信号	-10.9342
全凭	-10.9343
闭气	-10.9343
黑夜中	-10.9343
倾听	-10.9343
老和尚	-10.9343
数十招	-10.9344
离岛	-10.9344
示意	-10.9344
非但	-10.9344
内脏	-10.9344
地区	-10.9344
家中	-10.9344
气息	-10.9344
精通	-10.9345
笔直	-10.9346
不自禁的	-10.9347
轻挥	-10.9348
不仅	-10.9348
拚着	-10.9348
逃脱	-10.9349
七兄弟	-10.9349
精明	-10.935
重阳	-10.935
神功	-10.935
惨死	-10.935
运行	-10.9351
而不是真的	-10.9351
宝马	-10.9351
白衣	-10.9352
大胆	-10.9352
径行	-10.9352
江水	-10.9352
斜身	-10.9354
句子	-10.9354
两侧	-10.9354
惊异	-10.9355
伤痛	-10.9355
美酒	-10.9356
右手伸出	-10.9356
中神通	-10.9357
聚会	-10.9358
满足	-10.9358
白骨	-10.936
做个	-10.9362
这丫头	-10.9362
伸掌	-10.9363
摇手	-10.9364
尽快	-10.9364
写字	-10.9364
手肘	-10.9365
之境	-10.9365
最近	-10.9365
的年龄	-10.9365
散开	-10.9365
十余年来	-10.9366
何事	-10.9366
畜生	-10.9367
陆地	-10.9367
见洪七公	-10.9367
踢去	-10.9367
梁上	-10.9367
向我	-10.9369
实际上是在	-10.937
两个娃娃	-10.937
决心	-10.9373
月光下只见	-10.9374
内伤	-10.9374
了你的	-10.9374
一碟	-10.9374
抓了	-10.9375
门前	-10.9375
旁观众人	-10.9377
书写	-10.9377
正欲	-10.9377
作势	-10.9378
大梁	-10.9378
拖雷与郭靖	-10.9378
不在乎	-10.9379
至此	-10.9379
家人	-10.9379
情意	-10.938
送命	-10.9382
哪个	-10.9383
找个	-10.9384
直击	-10.9384
心中一动	-10.9385
几位	-10.9386
出版	-10.9387
讨好	-10.9388
逼着	-10.9389
突然之间	-10.9389
相差	-10.9389
到达	-10.939
双膝跪	-10.9391
黄马	-10.9392
但愿	-10.9392
这道人	-10.9393
缸中	-10.9394
石梁	-10.9395
分明	-10.9396
倒在地下	-10.9397
奇门	-10.9398
的徒弟	-10.9398
住口	-10.9399
的说法	-10.94
使不得	-10.9402
有毒	-10.9402
关于	-10.9403
天气	-10.9403
记着	-10.9404
宰了	-10.9405
各有	-10.9405
右脚	-10.9408
说甚么也不	-10.941
不避	-10.941
女生	-10.941
下次	-10.941
在当地	-10.9411
走过去	-10.9411
两种	-10.9413
追逐	-10.9413
打败了	-10.9414
守着	-10.9414
天明	-10.9414
提着	-10.9415
要找	-10.9418
兵书	-10.9419
我们可以	-10.9419
文化中	-10.942
几个月	-10.9422
事迹	-10.9425
箭头	-10.9426
胡说	-10.9428
心血	-10.9429
老头	-10.943
过度	-10.9432
这家伙	-10.9433
在岛上	-10.9433
回教	-10.9435
要穴	-10.9437
扣住	-10.9439
这一推	-10.9442
不敬	-10.9445
噗的一	-10.9445
等于	-10.9446
足够	-10.9449
哪一个	-10.9458
叫人	-10.9466
▁黄蓉见他	-10.9469
点燃了	-10.9471
小心了	-10.9473
取了	-10.9479
话声	-10.9479
口里	-10.9486
追到	-10.949
就算是	-10.9491
好险	-10.9494
大门	-10.9497
涌上	-10.9503
也不理会	-10.9512
替他	-10.9514
宫中	-10.9519
应声	-10.9519
这功夫	-10.952
我这就	-10.9521
一卷	-10.9522
一千	-10.9522
刚要	-10.9528
道教	-10.9529
外号	-10.9532
罢手	-10.9536
定有	-10.9539
那为什么	-10.954
大理	-10.9547
骂得	-10.9558
曾在	-10.9558
下盘	-10.9559
后会	-10.9561
已到了	-10.9561
师门	-10.9562
在上面	-10.9563
该怎么	-10.9563
暗喜	-10.9564
若能	-10.9564
穿过	-10.9567
当头	-10.9568
伸手到	-10.9572
伸手往	-10.9574
不满	-10.9579
惊呼	-10.9581
有约	-10.9582
一刻	-10.9582
咱们再	-10.9582
乱打	-10.9586
平安	-10.9588
三颗	-10.9588
的药物	-10.9593
传人	-10.9596
我不知道	-10.9597
停留	-10.9601
大大的	-10.9605
在前	-10.9606
呆了	-10.961
算了	-10.9611
郭靖吃了一惊	-10.9612
先将	-10.9613
在海中	-10.9613
教过	-10.9617
向后跃开	-10.9618
却未	-10.9624
一放	-10.9626
郭靖见她	-10.9628
叫好	-10.9628
是天下第一	-10.9634
点点	-10.9638
根本	-10.9639
又怎样	-10.9639
长了	-10.9643
这件	-10.9646
洪七公摇头	-10.9648
我不能	-10.9657
大声喝	-10.9657
向里	-10.9661
如果我	-10.9662
句句	-10.9663
三哥	-10.9666
你不是	-10.9667
两招	-10.9668
要请	-10.9669
却只	-10.9672
怎么不	-10.9672
杀我	-10.9673
可以尝试	-10.9674
行动	-10.9675
▁博尔朮	-10.9678
这只是	-10.9678
缩身	-10.9691
救我	-10.9693
用手	-10.9694
情景	-10.9695
如不是	-10.9698
了这许多	-10.9703
若有	-10.9713
身畔	-10.9716
在外面	-10.9719
掉了	-10.9722
了结	-10.9726
将经文	-10.9733
无论是	-10.9737
重要	-10.9738
自从	-10.9742
李萍道	-10.9755
大进	-10.9761
撞向	-10.9761
语气	-10.9763
这姑娘	-10.9766
碗饭	-10.9769
中之意	-10.9783
绕到	-10.9784
我会	-10.9785
从头	-10.979
了回来	-10.979
▁朮赤	-10.9791
跃而起	-10.9797
身体的	-10.9798
以下	-10.9799
说着将	-10.9799
却不能	-10.98
响亮	-10.9806
一早	-10.9808
怎么知道	-10.9809
没有人	-10.981
一定要	-10.9817
不遵	-10.9818
的说话	-10.9818
东方	-10.9825
得着	-10.9837
南北	-10.9838
好吃	-10.984
也可能	-10.9842
电梯	-10.9849
与欧阳克	-10.9849
放过	-10.9849
黄蓉心	-10.9852
破坏	-10.986
呼喊	-10.9866
发劲	-10.9867
这两位	-10.9875
出来了	-10.9876
倚在	-10.9879
脸有	-10.9883
特定的	-10.9886
’!”	-10.9892
来接	-10.9897
了良久	-10.9903
更快	-10.9904
便知	-10.9907
00	-10.9911
命在	-10.9911
眼前一	-10.9913
相关的	-10.9918
追上	-10.9919
一共	-10.9928
心里一	-10.9928
长子	-10.9933
喘	-10.9934
光一闪	-10.9937
在于	-10.9939
的影响	-10.9945
吐出	-10.995
轿子	-10.9952
否	-10.9955
用意	-10.9956
现下你	-10.9956
几条	-10.9965
十万	-10.9976
手下的	-10.9977
不受	-10.9978
师妹	-10.9999
向欧阳克	-11.0002
垂下	-11.0003
忘记	-11.0007
要求	-11.0008
原来如此	-11.001
不轻	-11.0011
该当如何	-11.0011
姓名	-11.0016
有话说	-11.002
那便	-11.0021
去路	-11.0025
可也	-11.0041
他怕	-11.0041
心中暗暗	-11.0044
蹲	-11.0046
引发	-11.0052
见黄药师	-11.0063
长身	-11.0065
效果	-11.0067
已不知去向	-11.0067
剩下	-11.0072
游动	-11.008
是为	-11.0083
三个人	-11.0084
了一眼	-11.0085
这样可以	-11.0096
淡淡	-11.0097
几句话	-11.0105
中所载	-11.0105
干么不	-11.0108
怕她	-11.0118
不闻	-11.0118
向梅超风	-11.0121
姑	-11.0126
人生	-11.0127
限	-11.0127
郭靖见他	-11.0131
魔头	-11.0137
遵	-11.0138
奇妙	-11.0143
尽可	-11.015
助我	-11.0152
与之	-11.0154
却似	-11.0158
掳	-11.0159
瞎子	-11.016
厨房	-11.0161
恶贼	-11.0165
窃	-11.0166
劈去	-11.0167
不适	-11.0171
金环	-11.0173
我们通常	-11.0175
洪七公与郭靖	-11.0175
郭靖知道	-11.0182
传下	-11.0182
资质	-11.0183
时机	-11.0183
故乡	-11.019
女朋友	-11.019
嗅	-11.0195
烛	-11.0195
森	-11.0196
仆	-11.0197
详	-11.0198
凳	-11.02
妥	-11.02
宛如	-11.0201
醒了	-11.0202
没有直接关系	-11.0207
别再	-11.0207
乡下	-11.0208
说了出来	-11.0208
当然是	-11.0209
愤	-11.021
宴	-11.0213
半个时辰	-11.0213
如果你想	-11.0214
别人的	-11.0214
上乘内功	-11.0215
侄	-11.0215
天灵盖	-11.0215
仅	-11.0215
昂	-11.0216
丹田	-11.0217
琢磨	-11.0217
相逢	-11.0219
筝	-11.0219
潮	-11.022
对答	-11.0221
锋	-11.0221
怜	-11.0223
欺骗	-11.0223
签	-11.0224
震得	-11.0225
千余	-11.0226
信了	-11.0228
往地下一	-11.0229
岳	-11.0229
呵呵	-11.0229
打过	-11.023
拾	-11.0231
相候	-11.0231
踪	-11.0231
做得	-11.0232
距	-11.0232
戒	-11.0232
搏	-11.0232
井	-11.0233
检查	-11.0233
慌	-11.0233
农	-11.0233
康	-11.0233
研	-11.0233
资源	-11.0233
瞬	-11.0233
幻	-11.0234
舵	-11.0234
农家	-11.0234
僵	-11.0235
神骏	-11.0235
波涛	-11.0235
县	-11.0235
鼠	-11.0236
某个	-11.0236
辛	-11.0237
慕	-11.0237
参仙老怪	-11.0237
岳武穆	-11.0237
哉	-11.0238
锤	-11.0238
只剩	-11.0238
评	-11.0238
鸦	-11.0238
长春子	-11.0238
诡	-11.0238
存心	-11.0238
范	-11.0238
雪白	-11.0239
腐	-11.0239
谨	-11.0239
盟	-11.0239
肥皂	-11.0239
祠堂	-11.0239
渊	-11.0239
侧过了头	-11.0239
肾	-11.024
这些年来	-11.024
一瞬之间	-11.024
欧	-11.024
盈盈	-11.024
洗衣机	-11.024
铃	-11.024
揍	-11.024
在中文中	-11.024
酸奶	-11.024
蜡烛	-11.024
陀螺	-11.024
帖	-11.024
胡言乱语	-11.024
郭贤侄	-11.024
宠物	-11.024
睡眠	-11.024
浩	-11.024
X	-11.024
惊疑不定	-11.024
四张机	-11.024
巨鲨	-11.024
踪影	-11.024
姿式	-11.024
滑稽	-11.024
窝	-11.024
竞争	-11.024
四大弟子	-11.024
巢	-11.024
肌肤	-11.024
金刀驸马	-11.024
驼	-11.024
聘	-11.024
两头白雕	-11.024
情势危急	-11.024
遁	-11.024
葛	-11.024
拢	-11.024
北斗阵	-11.024
双腿一夹	-11.024
奥特曼	-11.024
惶恐	-11.024
趋避	-11.0241
守御	-11.0241
残废	-11.0241
性命不保	-11.0241
越听越	-11.0241
灰尘	-11.0241
嫡	-11.0241
兴高采烈	-11.0241
尼	-11.0241
灵机一动	-11.0241
漆黑一团	-11.0241
24	-11.0241
市镇	-11.0241
服饰	-11.0241
卫士	-11.0241
迷糊	-11.0241
点头称是	-11.0241
的份儿	-11.0241
判官笔	-11.0241
七日七夜	-11.0241
挪	-11.0241
商议	-11.0241
破口大骂	-11.0241
骄	-11.0241
躬身行礼	-11.0241
相询	-11.0241
个寒噤	-11.0241
草莽	-11.0241
白衣女子	-11.0241
浑小子	-11.0241
光芒	-11.0241
亚	-11.0242
污衣派	-11.0242
检视	-11.0242
智商	-11.0242
涉及到	-11.0242
暂且	-11.0242
京师	-11.0242
智慧	-11.0242
策略	-11.0242
转瞬间	-11.0242
设施	-11.0242
教训	-11.0242
心中怦怦乱跳	-11.0242
祖宗	-11.0242
包扎	-11.0242
蚌壳	-11.0242
跟在后面	-11.0242
跃上马背	-11.0242
陆兄	-11.0242
羡	-11.0242
侍卫	-11.0242
勇士	-11.0243
凶狠	-11.0243
容颜	-11.0243
结束	-11.0243
睁眼	-11.0243
咒骂	-11.0243
恼恨	-11.0243
坏蛋	-11.0243
尊敬	-11.0243
简单	-11.0243
黄瓜	-11.0243
隔了一会	-11.0243
我只道	-11.0243
确保	-11.0243
雄雕	-11.0244
包氏	-11.0244
铁筝	-11.0244
斩首	-11.0244
乱成一团	-11.0244
喜悦	-11.0244
儒	-11.0244
证明	-11.0244
驱蛇	-11.0245
竭力	-11.0245
乘客	-11.0245
这几日	-11.0245
一愕	-11.0245
尖刀	-11.0245
凶猛	-11.0245
封号	-11.0245
老兄	-11.0246
更好地	-11.0246
隐居	-11.0246
利器	-11.0246
平素	-11.0246
听得清清楚楚	-11.0246
掀开	-11.0246
百倍	-11.0246
居民	-11.0246
心中甚喜	-11.0247
解读	-11.0247
躲避	-11.0247
弯曲	-11.0247
怔怔的	-11.0247
再拆数	-11.0248
任由	-11.0248
威猛	-11.0248
解决	-11.0249
凝视着	-11.0249
练习	-11.0249
微弱	-11.0249
任意	-11.0249
又惊又	-11.0249
感冒	-11.0249
又是好笑	-11.0249
呆立	-11.025
狗王	-11.025
毒液	-11.0251
反贼	-11.0251
剑术	-11.0251
激斗	-11.0251
渔舟	-11.0252
跑步	-11.0252
生产	-11.0252
今年	-11.0252
提及	-11.0252
抢步	-11.0252
随意	-11.0252
明显	-11.0253
遗传	-11.0253
安葬	-11.0253
江山	-11.0253
不走	-11.0253
反弹	-11.0253
负了	-11.0254
竟敢	-11.0254
打扰	-11.0254
精兵	-11.0254
永生	-11.0254
援手	-11.0254
也遂	-11.0255
神仙	-11.0255
整个	-11.0255
纵横	-11.0255
华筝妹子	-11.0255
幼小	-11.0255
子孙	-11.0256
歹人	-11.0256
一把抓住	-11.0256
化石	-11.0256
现实	-11.0256
瓜子	-11.0256
二次	-11.0257
低低	-11.0257
说不出话来	-11.0257
不适合	-11.0257
头戴	-11.0257
毒性	-11.0257
大半个时辰	-11.0258
部众	-11.0258
携手	-11.0258
精深	-11.0259
银行	-11.026
追寻	-11.026
守军	-11.026
只吓得	-11.026
不测	-11.026
郭大哥	-11.026
好端端的	-11.0261
西游	-11.0262
射箭	-11.0262
散乱	-11.0263
凶手	-11.0263
美女	-11.0264
乘马	-11.0265
洞外	-11.0265
那道姑	-11.0267
衣带	-11.0268
无计	-11.0268
两个孩子	-11.0269
破解	-11.0269
洗手	-11.027
帮着	-11.027
心念	-11.027
不济	-11.027
闻声	-11.027
委实	-11.0271
作恶	-11.0271
法国	-11.0271
会对	-11.0272
哭叫	-11.0273
剑尖	-11.0273
这老贼	-11.0273
人氏	-11.0273
字条	-11.0273
你可	-11.0274
性情	-11.0275
外国	-11.0275
撒麻尔罕城	-11.0276
部族	-11.0278
刀法	-11.0278
形容	-11.0279
鞭子	-11.0279
所以他们	-11.028
属于	-11.028
一块大石	-11.028
郭兄弟	-11.0281
位于	-11.0282
推门	-11.0284
连夜	-11.0284
水果	-11.0287
挺起	-11.0287
流行	-11.0287
箭法	-11.0288
随口	-11.0288
真传	-11.0289
一扳	-11.029
高铁	-11.0291
各处	-11.0296
被认为	-11.0296
相反	-11.0297
同门	-11.0298
个个都是	-11.0298
再也不敢	-11.0298
电子	-11.0298
信口	-11.0299
两军	-11.03
我该怎么办	-11.03
我妈妈	-11.0301
水平	-11.0301
完成	-11.0301
亲口	-11.0302
护住	-11.0302
相传	-11.0303
完全不同	-11.0303
一来	-11.0304
拉了	-11.0306
半分	-11.0306
广大	-11.0308
大师哥	-11.031
带领	-11.0311
骨头	-11.0311
正当	-11.0311
温言	-11.0312
再次	-11.0314
铁枪庙	-11.0315
四方	-11.0315
在田	-11.0317
晕去	-11.0318
所书	-11.0318
十五	-11.0321
虽已	-11.0322
是他的	-11.0323
郭靖点点头	-11.0324
仍然是	-11.0324
抓到	-11.0326
为什么不把	-11.0327
将官	-11.0327
再比	-11.0328
小红	-11.033
小狗	-11.0334
手爪	-11.0334
的痕迹	-11.0334
见到她	-11.0335
长出	-11.0337
开门	-11.0337
之念	-11.0339
希奇古怪的	-11.0339
奔上	-11.0341
众多	-11.0341
爬上	-11.0343
书中	-11.0344
学生	-11.0344
这时才	-11.0347
心理	-11.0347
精力	-11.0348
好东西	-11.0348
仇怨	-11.035
喝水	-11.0351
两兄弟	-11.0351
是也不是	-11.0351
大致	-11.0352
当面	-11.0353
领教	-11.0354
极快	-11.0356
你的身体	-11.0356
意为	-11.0357
越来越是	-11.036
只听黄蓉	-11.036
回转	-11.0361
老顽童周伯通	-11.0362
上山来	-11.0363
学的	-11.0365
九个	-11.0365
横过	-11.0365
这句	-11.0366
苦于	-11.0366
就不能	-11.0367
高山	-11.0367
▁这并不是	-11.0367
迈步	-11.0368
背着	-11.0368
只听欧阳锋	-11.0368
会意	-11.0369
撞得	-11.0372
汗国	-11.0373
再者	-11.0377
大约	-11.0377
▁是不是	-11.0379
了一半	-11.0381
教了	-11.0386
肠道	-11.0393
但如果	-11.0393
小路	-11.0395
大功	-11.0396
对准了	-11.0397
送来的	-11.0398
掏出	-11.0398
你叫	-11.0399
将上来	-11.0401
不像	-11.0403
那怎么办	-11.0404
中指	-11.0404
游戏中	-11.0404
这一刀	-11.0411
火把	-11.0411
下场	-11.0413
在临安	-11.0414
又把	-11.0415
爱吃	-11.0416
穿上	-11.0419
大哭	-11.0419
那男子	-11.042
他的话	-11.0421
▁不算	-11.0421
练成了	-11.0424
上帝	-11.0424
就是这样	-11.0424
说笑	-11.0427
要杀	-11.0429
这臭小子	-11.043
甚么话	-11.0433
了两下	-11.0435
▁这一来	-11.0435
总得	-11.0436
你六位师父	-11.0437
石屋	-11.0439
一直在	-11.0439
出马	-11.044
终是	-11.044
岂是	-11.0445
出外	-11.0447
之日	-11.0448
竟把	-11.045
有物	-11.0452
的方位	-11.0453
洪七公与欧阳锋	-11.0455
▁为什么我	-11.0456
看见	-11.0456
冲到	-11.0462
这二人	-11.0465
怎么啦	-11.0472
解救	-11.0473
力量	-11.0473
去接	-11.0473
拂中	-11.0486
祝	-11.0488
页	-11.0489
画的	-11.0489
曾说	-11.0489
奇了	-11.05
郭靖低声	-11.0502
匹马	-11.0502
百年	-11.0503
如刀	-11.0506
的重要	-11.0507
的船	-11.0508
的踪迹	-11.0509
厅上	-11.051
撞击	-11.0513
怎么了	-11.0516
除下	-11.0524
告诉我	-11.0527
八个	-11.0532
知道郭靖	-11.0533
也算	-11.0533
去势	-11.0534
拿到	-11.0534
怎么又	-11.0537
那有甚么	-11.0537
竟已	-11.0539
▁那少女	-11.054
那一招	-11.0543
万一	-11.0549
水里	-11.0549
一灯大师的	-11.055
石壁	-11.0552
极重	-11.0554
蹄印	-11.0556
没死	-11.0556
的使者	-11.0559
我本来	-11.056
枪头	-11.056
方得	-11.0562
有性命	-11.0563
擒拿手	-11.0566
这道士	-11.0569
他肩头	-11.0573
高出	-11.0576
的力道	-11.0584
就请	-11.0586
涌身	-11.059
眼望	-11.0599
怎么他	-11.0599
南来	-11.0608
厉声喝	-11.0614
郭靖左手	-11.0616
虽只	-11.0616
为什么还要	-11.062
这掌	-11.0627
也不知是	-11.0628
数招一	-11.0633
这小丫头	-11.0634
▁黄蓉心	-11.0642
的概念	-11.0643
铁掌帮的	-11.0649
一会儿	-11.0651
看到的	-11.0651
所知	-11.0652
▁这是因为你	-11.0652
偏要	-11.0658
后跃	-11.0668
高低	-11.0671
早上	-11.0672
刀子	-11.0679
跃入	-11.0683
顾不得	-11.0686
他后心	-11.0687
之手	-11.0687
跟他们	-11.0688
不存在	-11.0688
▁说话	-11.069
只见洪七公	-11.0696
已成	-11.0698
你待	-11.0705
脸上神色	-11.0708
无人能	-11.0712
练得	-11.0722
曾与	-11.0726
一意	-11.0728
的衣袖	-11.0733
重又	-11.0735
似有	-11.0736
拿出	-11.0745
的物品	-11.0745
送来	-11.075
计较	-11.0755
用心	-11.0755
拿过	-11.0756
跃到	-11.076
长得	-11.0761
正与	-11.0762
光闪	-11.0766
从来没	-11.077
这对	-11.0773
的来历	-11.0773
只道是	-11.0774
赵王完颜洪烈	-11.0777
寻仇	-11.0778
也顾不得	-11.078
心中好生	-11.0788
我早	-11.0791
有足够的	-11.0797
在大漠	-11.0798
多说	-11.08
黄药师笑	-11.08
前行	-11.0803
那么这	-11.0805
劲风	-11.0808
运功	-11.0809
能胜	-11.081
怎么就	-11.0814
也很	-11.0816
好心	-11.0832
只怕她	-11.0834
你爱	-11.0842
来罢	-11.0845
又无	-11.0847
▁桑昆	-11.0848
了进去	-11.085
▁南希仁	-11.0854
在外	-11.0863
大穴	-11.0866
累了	-11.0868
的遗	-11.0868
怎么办啊	-11.0872
本身就	-11.0877
有人说	-11.0879
我自然	-11.0879
就将	-11.0883
桩	-11.0883
废	-11.089
韩宝驹等	-11.0893
心中暗	-11.0898
甚感	-11.0904
势危	-11.0906
又都	-11.0906
稻草	-11.0907
无情	-11.0912
这小姑娘	-11.0916
无声	-11.0917
不分	-11.0922
红了	-11.0922
这位是	-11.0924
人心	-11.0928
郭靖只觉	-11.0928
言而	-11.093
一枪	-11.0938
很大	-11.0939
当下把	-11.0942
学到	-11.0944
单是	-11.0945
在归云庄	-11.0948
普天下	-11.095
刺来	-11.0961
求他	-11.0967
说着向	-11.0968
齐上	-11.097
一代	-11.0971
而后	-11.0976
炎	-11.0985
只吃	-11.0986
边上	-11.0987
挂在	-11.0987
角度来	-11.0988
若说	-11.0988
缝中	-11.0991
一处	-11.0999
浑不	-11.1
郭靖忙问	-11.1002
被敌人	-11.1004
武功已	-11.1005
不是说	-11.1016
16	-11.1021
九年	-11.1022
声呼叫	-11.1024
不准	-11.1026
也不知道	-11.1036
一只大	-11.1036
远胜	-11.1036
疾向	-11.104
好好的	-11.1051
飞到	-11.1056
下山去	-11.1066
西行	-11.1066
急驰	-11.1073
点燃	-11.1075
不通	-11.1076
再想	-11.1078
万人	-11.1082
怔	-11.1082
这正是	-11.1083
杀敌	-11.1083
侧过	-11.1084
打了个	-11.1094
婆娘	-11.1094
多时	-11.1095
又被	-11.1103
吃完	-11.1104
剥	-11.1105
你爷爷	-11.1105
围住	-11.1106
后院	-11.1112
一幅	-11.112
在赵王府中	-11.1128
有多少	-11.1133
飘忽	-11.1133
喉	-11.1136
有意	-11.1136
好歹	-11.1138
照着	-11.114
上天	-11.1142
好些	-11.1144
高强	-11.1145
了一场	-11.1146
懂得	-11.1149
同声	-11.1152
说出来	-11.1153
我六位师父	-11.1154
未必就	-11.1161
尤	-11.1166
的朋友	-11.1168
所授的	-11.1169
坡	-11.1171
厨	-11.1173
又起	-11.1176
的手里	-11.1178
得更	-11.1187
碟	-11.1188
情由	-11.1189
僧	-11.1191
宁可	-11.1191
幅	-11.1191
杂毛	-11.1192
医治	-11.1192
缠住	-11.1192
猛然	-11.1198
领兵	-11.1199
肩膀	-11.1201
橱	-11.1202
比试	-11.1203
纵起	-11.1203
需	-11.121
与拖雷	-11.1213
铁尸	-11.1214
送出	-11.1215
慈	-11.1216
惟	-11.1219
这两句话	-11.1221
擅	-11.1223
抚	-11.1223
眉毛	-11.1223
昔	-11.1224
一抓	-11.1224
白驼山	-11.1225
你在哪里	-11.1226
资	-11.1227
毒菱	-11.1227
微侧	-11.1228
难保	-11.1228
册	-11.1228
狞	-11.1229
制成的	-11.1229
算数	-11.123
目标	-11.1232
思潮起伏	-11.1232
黎	-11.1232
亿	-11.1232
竭	-11.1233
禀	-11.1234
组	-11.1234
英语	-11.1234
促	-11.1234
篷	-11.1234
凝视	-11.1235
羽	-11.1235
诵	-11.1236
鸭	-11.1236
大出意料之外	-11.1236
佩	-11.1236
枯	-11.1236
彻	-11.1236
侯	-11.1236
顷刻	-11.1237
监	-11.1237
秤杆	-11.1237
凝望	-11.1237
十三	-11.1238
审	-11.1238
诱	-11.1238
开玩笑	-11.1238
操	-11.1238
一凛	-11.1238
泻	-11.1238
脚边	-11.1238
长生不老	-11.1238
颤抖	-11.1238
夕	-11.1238
啼	-11.1239
剂	-11.1239
惠	-11.1239
舒	-11.1239
他女儿	-11.1239
辰	-11.1239
可以选择	-11.1239
吴	-11.1239
窗户	-11.1239
拘	-11.1239
p	-11.1239
八卦	-11.1239
*	-11.124
寡不敌众	-11.124
沉沉睡去	-11.124
茫然不解	-11.124
刮	-11.124
欧阳叔侄	-11.124
东奔西	-11.124
卑鄙	-11.124
疯疯癫癫	-11.124
宣	-11.124
寻求专业	-11.124
大多数	-11.124
一声长笑	-11.124
向日葵	-11.124
斡儿朵	-11.124
酋长	-11.124
毛骨悚然	-11.124
等多种因素	-11.124
动上了手	-11.124
张家口	-11.124
踩	-11.124
严峻	-11.124
倦	-11.124
摧	-11.124
从头至尾	-11.124
播放	-11.124
体验	-11.124
匙	-11.124
诉	-11.124
不计其数	-11.124
售	-11.124
惊怒交集	-11.124
搓	-11.124
狭	-11.124
世伯	-11.124
凤	-11.124
啰唆	-11.124
检测	-11.124
盏	-11.124
组织	-11.124
虾	-11.124
行侠仗义	-11.124
喘息	-11.124
按摩	-11.124
轩辕台	-11.124
侧耳倾听	-11.124
一小队	-11.124
帷	-11.124
站立不稳	-11.124
S	-11.124
差不多	-11.124
旺	-11.124
设置	-11.124
障	-11.124
碳	-11.124
墓碑	-11.124
飞龙在天	-11.1241
KTV	-11.1241
参详	-11.1241
了一个多时辰	-11.1241
胃	-11.1241
流下泪来	-11.1241
刹那间	-11.1241
近年来	-11.1241
驸马爷	-11.1241
绑	-11.1241
撩	-11.1241
汗巾	-11.1241
悲愤	-11.1241
长春真人	-11.1241
官职	-11.1241
贸然	-11.1241
应手而	-11.1241
计谋	-11.1241
柯大哥	-11.1241
舍侄	-11.1241
苏联	-11.1241
沙龙王	-11.1241
钱青健	-11.1241
委顿	-11.1241
机构	-11.1241
顷	-11.1241
嗔	-11.1241
哄	-11.1241
政策	-11.1241
影踪不见	-11.1241
季节	-11.1241
喧	-11.1241
图谋	-11.1241
纱	-11.1241
荷叶	-11.1241
疲累	-11.1241
北极星位	-11.1241
竹亭	-11.1241
丈许	-11.1241
韵	-11.1241
窄	-11.1241
造诣	-11.1241
毒辣	-11.1242
感慨	-11.1242
责备	-11.1242
温暖	-11.1242
岂敢	-11.1242
珍宝	-11.1242
价格	-11.1242
前辈高人	-11.1242
技巧	-11.1242
心中突突乱跳	-11.1242
木桶	-11.1242
焚烧	-11.1242
咱哥儿俩	-11.1242
灵蛇拳	-11.1242
贼婆娘	-11.1242
腾腾	-11.1242
喝彩	-11.1242
顷刻之间	-11.1242
巨大的	-11.1242
爱妻	-11.1242
资本	-11.1243
痛楚	-11.1243
那胖妇人	-11.1243
少庄主	-11.1243
残疾	-11.1243
Y	-11.1243
艰难	-11.1243
获胜	-11.1243
拂尘	-11.1243
勇敢	-11.1243
凑巧	-11.1243
铁链	-11.1243
铁菱	-11.1243
狼牙棒	-11.1243
眉目	-11.1243
仗义	-11.1244
停止	-11.1244
惊慌	-11.1244
实践	-11.1244
奇幻	-11.1244
泥沙	-11.1244
搏击	-11.1244
常言道	-11.1244
发型	-11.1244
惊奇	-11.1244
光彩	-11.1245
单凭	-11.1245
帐篷	-11.1245
抢攻	-11.1245
跪在地下	-11.1245
烛光下	-11.1246
杨帮主	-11.1246
东邪西毒	-11.1246
第三次	-11.1246
先锋	-11.1246
兰花	-11.1246
搔头	-11.1246
杨大哥	-11.1246
类似	-11.1246
轻薄	-11.1246
钱镖	-11.1246
不敢作声	-11.1246
违背	-11.1246
拔出匕首	-11.1247
宗师	-11.1247
令尊	-11.1247
大纛	-11.1247
气愤	-11.1247
关注	-11.1247
临敌	-11.1247
南朝	-11.1247
险恶	-11.1248
点穴功夫	-11.1248
老娘	-11.1248
数寸	-11.1248
能否	-11.1248
晚间	-11.1248
纵身跃起	-11.1248
立誓	-11.1248
好哇	-11.1248
胜败	-11.1248
无碍	-11.1249
射雕	-11.1249
抛在地下	-11.1249
节目	-11.1249
并不存在	-11.1249
亲密	-11.1249
沉沉	-11.1249
责骂	-11.1249
衣领	-11.125
棒端	-11.125
上前相助	-11.125
这门功夫	-11.125
锦囊	-11.125
反手一掌	-11.1251
众亲兵	-11.1251
戒指	-11.1251
局面	-11.1251
无赖	-11.1251
求助	-11.1251
用得着	-11.1251
第三日	-11.1251
料理	-11.1251
拉扯	-11.1252
穿衣服	-11.1252
夜晚	-11.1252
斧头	-11.1253
地球上的	-11.1253
决非	-11.1253
左腿	-11.1253
扰乱	-11.1253
出手相救	-11.1253
正式	-11.1253
悲伤	-11.1254
气候	-11.1254
变故	-11.1254
短刀	-11.1254
士兵	-11.1254
众位	-11.1254
祖先	-11.1254
抖动	-11.1254
接应	-11.1255
兵士	-11.1255
疯子	-11.1255
平平	-11.1255
粪便	-11.1256
相迎	-11.1256
汉字	-11.1256
抢夺	-11.1256
孤儿	-11.1256
定义	-11.1257
相帮	-11.1257
出家	-11.1257
成年人	-11.1257
二十年前	-11.1258
寻求	-11.1258
虎口	-11.1258
脸颊上	-11.1259
太过	-11.1259
北边	-11.1259
南边	-11.1259
拔足	-11.126
筝声	-11.126
长期	-11.1261
那梢公	-11.1261
你这般	-11.1262
重围	-11.1262
径往	-11.1263
没有关系	-11.1263
马鞭	-11.1263
再练	-11.1264
叫苦	-11.1264
阁下	-11.1264
白菜	-11.1264
明月	-11.1264
里许	-11.1264
防身	-11.1265
大雁	-11.1265
撒手	-11.1265
单身	-11.1265
女鬼	-11.1266
恶意	-11.1266
传令	-11.1266
铁箱	-11.1266
刚猛	-11.1267
原理	-11.1267
元气	-11.1267
要是给	-11.1267
后悔	-11.1267
如雨	-11.1267
则是指	-11.1268
颈后	-11.1268
千户	-11.1268
殊不知	-11.1268
金刀	-11.1268
松林中	-11.1269
自古	-11.127
交情	-11.127
正宗	-11.127
几十	-11.1271
至少	-11.1271
老王	-11.1271
接战	-11.1271
有缘	-11.1272
全真教主	-11.1272
震动	-11.1272
我问你	-11.1272
睡罢	-11.1273
每年	-11.1273
场所	-11.1274
也就是说	-11.1274
怒色	-11.1276
数合	-11.1277
拳招	-11.1277
上马背	-11.1278
这并不意味着	-11.1278
装作	-11.1279
满面	-11.1279
清点	-11.1279
▁第二十	-11.128
见识	-11.128
要是我	-11.1281
逼死	-11.1282
明言	-11.1282
山坡	-11.1283
一百年	-11.1283
门边	-11.1283
若肯	-11.1284
山边	-11.1284
玩家	-11.1285
跳起来	-11.1287
可能导致	-11.1289
陪笑	-11.1289
还礼	-11.129
其后	-11.1291
▁黄蓉心想	-11.1291
凭着	-11.1292
怒骂	-11.1293
一项	-11.1293
而是一种	-11.1295
对他说	-11.1295
两腿	-11.1295
满口	-11.1295
正合	-11.1296
笑问	-11.1298
满身	-11.1299
河北	-11.1301
说到后来	-11.1301
两边	-11.1302
决不致	-11.1304
死活	-11.1306
是甚么意思	-11.1308
许配给	-11.1308
痛快	-11.1308
下拜	-11.1308
深处	-11.131
四面	-11.1311
格开	-11.1313
满地	-11.1314
睡着了	-11.1314
响声	-11.1316
在游戏中	-11.1317
驰马	-11.1318
亲信	-11.1319
兵力	-11.132
好汉子	-11.1321
起始	-11.1321
百出	-11.1322
因而	-11.1323
各地	-11.1324
闭住	-11.1325
做出	-11.1325
不给	-11.1325
▁欧阳克见	-11.1326
是不可能的	-11.1328
大夫	-11.1329
隐隐传来	-11.1329
留心	-11.133
有一天	-11.133
玩儿	-11.1333
生下	-11.1336
大陆	-11.1336
虽在	-11.134
一转头	-11.1341
刺死	-11.1341
刚才我	-11.1343
还可	-11.1343
闪过	-11.1343
随便	-11.1344
好生为难	-11.1345
上树	-11.1345
何方	-11.1346
喜色	-11.1346
甚远	-11.1348
摔得	-11.1349
也只是	-11.1351
大高手	-11.1354
在西域	-11.1354
一份	-11.1355
穿出	-11.1355
不杀	-11.1355
回掌	-11.1356
理解和	-11.1357
小菜	-11.1359
传我	-11.136
直上	-11.1361
名将	-11.1363
这中间	-11.1367
白天	-11.137
他性命	-11.1371
大队	-11.1371
莫要	-11.1373
千百	-11.1378
自来水	-11.1378
在一边	-11.1379
海边	-11.1381
你侄儿	-11.1382
转弯	-11.1382
这是甚么	-11.1383
蒙古语	-11.1386
却要	-11.1386
只需要	-11.1387
围住了	-11.1391
千万别	-11.1391
兵将	-11.1391
杖上	-11.1392
一点也不	-11.1393
攻破	-11.1395
不利	-11.1396
西方	-11.1399
分离	-11.1404
说错了	-11.1405
带来的	-11.1406
翻转	-11.1408
玩弄	-11.1409
连问	-11.1409
影闪	-11.1409
独特的	-11.1411
道爷	-11.1412
几个字	-11.1412
呆呆的	-11.1414
赴桃花岛	-11.1417
亲眼见	-11.1417
你妈	-11.1417
自在	-11.1419
大异	-11.142
扑去	-11.1426
但教	-11.1428
内心	-11.1428
船中	-11.143
一线	-11.1433
光线	-11.1435
国王	-11.1438
平地	-11.1438
厅中	-11.144
了几声	-11.1446
七十二	-11.1452
显然是	-11.1453
犯了	-11.1455
火光	-11.1455
你妈妈	-11.1455
殿上	-11.1455
▁完颜洪熙	-11.1457
一顶	-11.1458
快活	-11.1458
大举	-11.1467
▁这可能是因为	-11.1467
压住	-11.1468
▁黄蓉与郭靖	-11.1473
接住了	-11.1475
恶人	-11.1475
兄妹	-11.1476
体内	-11.1478
▁那少年	-11.1481
在古代	-11.1484
一生之中	-11.1489
两手	-11.149
所以不能	-11.1491
除去	-11.1492
咱们先	-11.1492
可与	-11.1495
下降	-11.1497
罢啦	-11.1499
陪你	-11.1501
不仅仅是	-11.1503
画中	-11.1505
得多了	-11.1506
红色的	-11.1507
来此	-11.1507
一角	-11.1508
店堂	-11.1511
腕上	-11.1515
挺剑	-11.1517
也不想	-11.152
余下的	-11.1523
记住了	-11.1525
知道自己	-11.1528
却见他	-11.153
没半点	-11.1532
丢了	-11.1534
不理会	-11.1536
刺入	-11.1536
碗酒	-11.1537
交出	-11.1539
死啦	-11.154
便想	-11.1543
箭射	-11.1547
蒙古话	-11.1547
窗外	-11.155
推去	-11.155
见大汗	-11.1552
大乱	-11.1553
谁都	-11.1555
上楼	-11.1558
这是他	-11.156
知他是	-11.1561
要走	-11.1562
无事	-11.1563
’?”	-11.1573
甩出	-11.1573
你可能需要	-11.1575
他口中	-11.1582
撞见了	-11.1585
但他们	-11.1586
出气	-11.1586
甚么地方	-11.1587
马上就	-11.1588
决不敢	-11.1593
做官	-11.1606
分给	-11.1608
三月	-11.1614
受人	-11.1616
▁郭靖见他	-11.1618
下雨	-11.1619
一撞	-11.162
过多	-11.162
挡住了	-11.1628
情深	-11.1631
这样说	-11.1632
奔来	-11.1635
人数	-11.1639
骗我	-11.1639
想必	-11.164
岁年纪	-11.1644
十个	-11.1657
难说	-11.1661
钻入	-11.1665
便可	-11.1665
害我	-11.1666
有这等	-11.1669
也不过	-11.1669
只在	-11.1671
▁群丐	-11.1673
落得	-11.1674
压得	-11.1677
来船	-11.1677
却也是	-11.1682
经上	-11.1683
助他	-11.1684
本身就是	-11.169
小可	-11.1691
爱她	-11.1692
只说	-11.1693
点到	-11.1697
成就	-11.1698
向陆冠英	-11.1701
不还手	-11.1703
去禀告	-11.1712
救她	-11.172
江心	-11.1722
你的行为	-11.173
姓郭的	-11.1732
见到你	-11.1732
的问话	-11.1736
我岂能	-11.1738
的结果	-11.1743
有这么	-11.1745
一同	-11.1748
一变	-11.1751
进屋	-11.1752
伸手在	-11.1755
此间	-11.1761
峰上	-11.1761
见不到	-11.1766
一记	-11.1766
更好	-11.1766
出圈子	-11.1767
之士	-11.177
若不是他	-11.1771
上课	-11.1773
爹爹说	-11.178
但如	-11.1785
思念	-11.1787
她自己	-11.1789
一问	-11.1789
帐门	-11.1791
▁都史	-11.1798
无声息	-11.1799
近身	-11.1803
念及	-11.181
▁这句话	-11.181
众军	-11.1813
告知	-11.1816
代他	-11.1817
可能是指	-11.1824
形象	-11.1828
人身	-11.1828
姓郭	-11.184
返	-11.1841
禀告	-11.185
但不知	-11.1852
l	-11.1853
上写着	-11.1857
风扑面	-11.1858
拜了	-11.186
完颜康笑	-11.1864
在路上	-11.1864
门后	-11.1866
正是自己	-11.1871
他侄儿	-11.1872
我倒	-11.1875
要杀我	-11.1875
实际上是	-11.1877
的绳索	-11.1879
刀剑	-11.1879
骂人	-11.1882
也只有	-11.1883
他背心	-11.1885
▁江南七怪	-11.1887
的蒙古	-11.1894
贴身	-11.1896
黄蓉的手	-11.19
对你的	-11.1901
飞来	-11.1904
费力	-11.1906
不高	-11.1909
郭靖听得	-11.1909
闪身	-11.1909
听见了	-11.191
的武艺	-11.1912
逼近	-11.1915
加快	-11.1918
不生	-11.1919
三十六	-11.1932
学过	-11.1941
大奇	-11.1942
那么多	-11.1945
也罢	-11.1948
马蹄声	-11.1949
有点儿	-11.1951
表现	-11.1952
只用	-11.1956
射中	-11.1959
之位	-11.1968
够了	-11.197
你叫我	-11.1971
娶她	-11.1972
房里	-11.1973
一间	-11.1975
长生	-11.1979
这画	-11.1979
好菜	-11.1981
从没	-11.1982
不变	-11.1994
要知	-11.1996
不改	-11.1998
一步步的	-11.2001
回家去	-11.2001
青布	-11.2007
轻飘飘的	-11.2008
的对头	-11.2008
飞身而	-11.2017
飞行	-11.2018
瞪	-11.2019
陷入	-11.2027
生成	-11.2028
却不见	-11.2036
就往	-11.2038
无辜	-11.204
这一惊	-11.205
一页	-11.2053
拉开	-11.2062
落在地下	-11.2066
均已	-11.2067
的角色	-11.2069
抢去	-11.2079
叫嚷	-11.208
对我说	-11.2081
出店	-11.2081
公平	-11.2095
老大	-11.2095
他手臂	-11.2098
带来	-11.2101
言明	-11.2111
请坐	-11.2114
感受	-11.2119
的旧	-11.2124
如此厉害	-11.2125
到西	-11.2128
却见她	-11.2137
托在	-11.2141
一抬	-11.2142
跃下马	-11.2149
你的手	-11.2151
变身	-11.2152
你走	-11.2154
按在	-11.2157
一转	-11.2157
多半是	-11.2158
洞内	-11.2164
一碰	-11.217
第一个	-11.217
的误解	-11.217
比你	-11.2171
回想	-11.2172
得到了	-11.2178
见师父	-11.2178
大宛	-11.2195
全然不	-11.2195
漏	-11.2196
却给	-11.2198
干了	-11.2198
缚在	-11.2202
关键	-11.2206
绘	-11.2207
大殿	-11.2208
喃喃	-11.2209
几块	-11.2217
叫骂	-11.2218
她脸上	-11.2218
早日	-11.2219
竟将	-11.2226
情形	-11.2228
再教	-11.2233
内部	-11.2235
能找到	-11.2242
都知道	-11.2246
可能会对	-11.2247
你的手机	-11.225
你为甚么	-11.225
以上	-11.2262
暇	-11.2263
吼	-11.2263
小鬼	-11.2265
梦境	-11.2265
斟了	-11.2267
化为	-11.2267
▁第三十	-11.2268
轰	-11.2274
我该	-11.2288
塌	-11.2289
及时	-11.229
手执	-11.2292
▁黄蓉听他	-11.2292
搁	-11.2292
畜	-11.2293
黑夜之中	-11.23
两张	-11.2302
捉住	-11.2307
骏马	-11.2313
桃	-11.2314
半个	-11.2315
不敢当	-11.2315
哪一位	-11.2318
歹	-11.2318
测	-11.2319
不吃	-11.2319
讲述	-11.2321
雁	-11.2322
役	-11.2322
燃	-11.2322
肝	-11.2323
天下英雄	-11.2324
恃	-11.2325
箱	-11.2327
篮球	-11.2327
粮	-11.2327
囊中	-11.2328
老者	-11.233
蚌	-11.233
遂	-11.2333
膜	-11.2333
进招	-11.2334
纷	-11.2335
这与	-11.2337
胁	-11.2338
更大的	-11.2339
桌边	-11.2339
锭	-11.2341
奴	-11.2342
询	-11.2342
呼哨	-11.2343
拟	-11.2343
域	-11.2344
焉	-11.2344
灾	-11.2345
漆	-11.2345
K	-11.2345
一身武功	-11.2346
是我爹爹	-11.2346
邻	-11.2346
鞍	-11.2346
地球的引力	-11.2347
奶奶	-11.2347
厉	-11.2347
杰	-11.2347
鞘	-11.2347
岭	-11.2347
屏	-11.2348
戟	-11.2348
特征	-11.2348
本来是	-11.2348
渡	-11.2348
粥	-11.2348
逸	-11.2348
修习内功	-11.2348
耸	-11.2348
柯	-11.2348
奶	-11.2349
典	-11.2349
忿	-11.2349
蚊香	-11.2349
兮	-11.2349
婿	-11.235
职	-11.235
笼	-11.235
傲	-11.235
惨然	-11.235
m	-11.235
这批	-11.235
仪	-11.235
奸臣	-11.235
灶	-11.235
翅	-11.235
揉	-11.235
霍	-11.2351
卑	-11.2351
宾	-11.2351
影踪	-11.2351
嘲	-11.2351
公交车	-11.2351
打定了主意	-11.2351
账号	-11.2351
躁	-11.2351
纤夫	-11.2351
/	-11.2351
拙	-11.2351
秦始皇	-11.2351
统帅	-11.2351
USB	-11.2351
恐怖	-11.2351
飕飕	-11.2351
不明不白	-11.2351
幼儿园	-11.2351
明晃晃	-11.2351
溢	-11.2351
赦	-11.2351
痰	-11.2351
竞	-11.2351
揣	-11.2351
懈	-11.2351
走来走去	-11.2351
沫	-11.2351
圆睁	-11.2351
裙	-11.2351
▁如题	-11.2351
哪吒	-11.2351
融	-11.2351
反义词	-11.2351
嘘	-11.2351
尹师兄	-11.2351
测试	-11.2351
希奇	-11.2351
核	-11.2351
障碍	-11.2351
半空中	-11.2351
F	-11.2351
存储	-11.2351
念念不忘	-11.2351
摩诃末	-11.2351
苦寒之地	-11.2351
镶	-11.2351
50	-11.2351
焚	-11.2351
将信将疑	-11.2351
欧阳世兄	-11.2351
畏惧	-11.2351
聋	-11.2351
自然而然的	-11.2351
山坳	-11.2351
银梭	-11.2351
过意不去	-11.2351
鲁钝	-11.2351
蛾眉钢刺	-11.2352
丹阳子马钰	-11.2352
戒备	-11.2352
呆了一呆	-11.2352
窟	-11.2352
祝福	-11.2352
洪老前辈	-11.2352
傻里傻气	-11.2352
鲁莽	-11.2352
脸色惨白	-11.2352
幽幽	-11.2352
阴谋	-11.2352
担忧	-11.2352
辉	-11.2352
好生失望	-11.2352
斜睨	-11.2352
程师妹	-11.2352
进行沟通	-11.2352
夷	-11.2352
瞪视	-11.2352
物理现象	-11.2352
沉吟半晌	-11.2352
科技	-11.2352
嫩	-11.2352
锄	-11.2352
麻袋	-11.2352
嘱	-11.2352
酿	-11.2352
基础	-11.2352
放在眼里	-11.2352
大惊失色	-11.2352
蹙	-11.2352
动也不动	-11.2352
透骨钉	-11.2352
烛台	-11.2352
怜惜	-11.2352
模型	-11.2352
油腻	-11.2352
违抗	-11.2352
咬紧牙关	-11.2352
激烈	-11.2352
责任	-11.2352
江南六侠	-11.2352
这便如何	-11.2352
霎时之间	-11.2352
勃然	-11.2352
迭	-11.2352
判官	-11.2352
总纲	-11.2352
扑地倒了	-11.2352
秽	-11.2352
渊源	-11.2352
赚钱	-11.2352
净衣派	-11.2352
蚁	-11.2353
钦使	-11.2353
行了一礼	-11.2353
摧心掌	-11.2353
刘备	-11.2353
守城官	-11.2353
耶律楚材	-11.2353
自刎	-11.2353
测量	-11.2353
薰	-11.2353
礼貌	-11.2353
把持不定	-11.2353
13	-11.2353
思维	-11.2353
歹毒	-11.2353
温度计	-11.2353
南征	-11.2353
循声	-11.2353
幸亏	-11.2353
音讯	-11.2353
损坏	-11.2353
25	-11.2353
本拟	-11.2353
不住口的	-11.2353
隐瞒	-11.2353
领袖	-11.2353
贞	-11.2353
齐声惊呼	-11.2353
嘴唇	-11.2354
定律	-11.2354
疾驰	-11.2354
耀眼	-11.2354
佛像	-11.2354
静候	-11.2354
森森	-11.2354
一声长啸	-11.2354
臭叫化	-11.2354
鬓边	-11.2354
爱怜	-11.2354
营养	-11.2354
作揖	-11.2354
双斧	-11.2354
丐帮的帮主	-11.2354
回忆	-11.2354
贵帮	-11.2354
树叶	-11.2354
背叛	-11.2354
两名军士	-11.2354
堂上	-11.2354
自去	-11.2354
轴	-11.2354
紧紧抓住	-11.2355
隔了半晌	-11.2355
玉环	-11.2355
转化为	-11.2355
不堪	-11.2355
伦	-11.2355
众兵将	-11.2355
持续	-11.2355
村民	-11.2355
枉然	-11.2355
灰色	-11.2355
食品	-11.2355
变幻	-11.2355
倾侧	-11.2355
轮流	-11.2355
蛇奴	-11.2355
谈谈	-11.2355
刷的一声	-11.2355
多少时候	-11.2355
软件	-11.2355
裘帮主	-11.2356
所谓	-11.2356
长寿	-11.2356
石盒	-11.2356
送了性命	-11.2356
眼镜	-11.2356
陆师哥	-11.2356
碎片	-11.2356
落下地来	-11.2356
四哥	-11.2356
家庭	-11.2356
不知怎的	-11.2356
新鲜	-11.2356
极厉害的	-11.2356
右腕	-11.2356
态度	-11.2356
意中人	-11.2357
满腹	-11.2357
各族	-11.2357
三子窝阔台	-11.2357
降低	-11.2357
群盗	-11.2357
妙计	-11.2357
不敢违拗	-11.2357
宁海	-11.2357
首领	-11.2358
屏风	-11.2358
微晃	-11.2358
横卧	-11.2358
喜慰	-11.2358
临安府牛家村	-11.2358
吹牛	-11.2358
爱惜	-11.2358
忍痛	-11.2358
寿命	-11.2358
婚事	-11.2358
站直	-11.2359
好极啦	-11.2359
长啸	-11.2359
一般无异	-11.2359
特异	-11.2359
冤家	-11.2359
半尺	-11.2359
拂穴	-11.2359
仇敌	-11.236
医学	-11.236
之遥	-11.236
讲解	-11.236
金珠	-11.236
厨子	-11.236
师尊	-11.236
狠毒	-11.236
默写	-11.236
次日清晨	-11.236
强烈	-11.2361
躲了起来	-11.2361
相烦	-11.2361
长辈	-11.2361
棋子	-11.2361
团团围住	-11.2361
撇下	-11.2362
小畜生	-11.2362
所用的	-11.2362
分辨	-11.2362
十多名	-11.2362
固定	-11.2362
孤身	-11.2363
傻孩子	-11.2363
寒冷	-11.2363
为妻	-11.2363
脸露	-11.2364
视觉	-11.2364
乃蛮人	-11.2364
身子一晃	-11.2364
这幅画	-11.2364
境内	-11.2364
电流	-11.2365
整日	-11.2365
冻结	-11.2365
字迹	-11.2365
打电话	-11.2365
行驶	-11.2366
所以无法	-11.2366
缠斗	-11.2366
容色	-11.2366
纵身过去	-11.2366
太阳穴	-11.2366
疾奔	-11.2366
受内伤	-11.2367
均各	-11.2367
绳子	-11.2367
椅子	-11.2367
那老仆	-11.2367
滚出去	-11.2367
失败	-11.2367
依然	-11.2368
给我瞧瞧	-11.2368
向郭靖望了一眼	-11.2368
狗狗	-11.2368
酸痛	-11.2368
不住向	-11.2369
够啦	-11.2369
后辈	-11.2369
吃惊	-11.2369
莫怪	-11.2369
假意	-11.237
路径	-11.237
相顾	-11.237
那妖妇	-11.237
义女	-11.237
幼子	-11.237
恨不得	-11.2371
北国	-11.2371
这个名字	-11.2371
脚步声	-11.2371
情节	-11.2372
连续	-11.2372
结亲	-11.2372
痛哭	-11.2373
尘头	-11.2373
斗在一起	-11.2373
杯口	-11.2374
僧人	-11.2374
树丛中	-11.2374
高考	-11.2375
一出手就	-11.2375
杖法	-11.2375
院子	-11.2375
敬重	-11.2375
众百姓	-11.2375
游玩	-11.2375
请各位	-11.2376
第二日	-11.2376
湖上	-11.2376
两柄	-11.2376
二位	-11.2376
更容易	-11.2376
咱们走罢	-11.2377
失望	-11.2377
全部	-11.2378
自然规律	-11.2378
运力	-11.238
吐露	-11.2381
遍地	-11.2381
拥着	-11.2382
惊动	-11.2382
汗水	-11.2382
年纪虽	-11.2383
之类	-11.2383
头晕	-11.2383
火烧	-11.2383
五怪	-11.2384
自必	-11.2384
拨打	-11.2384
排便	-11.2384
七日	-11.2384
渗出	-11.2385
中秋	-11.2385
隐没	-11.2385
说给我听	-11.2385
一骑	-11.2386
小指	-11.2386
落败	-11.2387
结拜	-11.2387
心存	-11.2387
对望了一眼	-11.2387
刚刚	-11.2388
六个人	-11.2389
飞扬	-11.2389
接近	-11.239
躺下	-11.2391
认定	-11.2391
微变	-11.2392
直流	-11.2392
说几句话	-11.2393
在这里是指	-11.2393
口边	-11.2394
一丛	-11.2395
大王子	-11.2395
唯一	-11.2396
进退	-11.2397
引力	-11.2397
一门	-11.2398
到了这里	-11.2399
回首	-11.2399
命令	-11.2399
傻子	-11.24
隔着	-11.24
追击	-11.2401
时期	-11.2401
郭二人	-11.2401
代替	-11.2402
硬接	-11.2402
打针	-11.2403
在地球上	-11.2404
全神	-11.2405
位当	-11.2405
领着	-11.2405
流动	-11.2405
回臂	-11.2405
岸上	-11.2406
是鬼	-11.2406
岂不是好	-11.2406
开车	-11.2407
武功大进	-11.2408
这个自然	-11.2408
毛发	-11.2408
借用	-11.2409
明年	-11.2409
▁黄药师见他	-11.2409
怕甚么	-11.2409
摆着	-11.241
后领	-11.241
轻重	-11.241
一分钟	-11.2412
扑上去	-11.2412
抢起	-11.2414
从人丛中	-11.2414
长衣	-11.2414
其意	-11.2415
放箭	-11.2415
眼神	-11.2416
活人	-11.2416
歌声	-11.2418
甲板上	-11.2418
柔和	-11.2419
气体	-11.2421
全没	-11.2422
如果你觉得	-11.2422
昏暗	-11.2422
练门	-11.2423
树丛	-11.2424
之徒	-11.2424
可以理解为	-11.2424
咱们快	-11.2427
常见	-11.243
话题	-11.2431
又多了	-11.2435
同学	-11.2436
轻舟	-11.2437
之义	-11.2438
工人	-11.2439
发一声	-11.2439
狗子	-11.244
这两者	-11.244
目前	-11.244
不暇	-11.2442
带动	-11.2445
眼见要	-11.2446
只叫	-11.2446
小童	-11.2448
谁敢	-11.245
穷人	-11.245
数十年来	-11.2451
无知	-11.2454
眼力	-11.2456
高声大叫	-11.2456
杀你	-11.2457
的名称	-11.2458
原子	-11.2458
你可知道	-11.246
后代	-11.2461
好熟	-11.2461
在左近	-11.2462
马前	-11.2462
为师	-11.2463
奸计	-11.2464
豪杰之士	-11.2465
那小子	-11.2466
好得很	-11.2468
脸如	-11.2469
还说	-11.2469
尖刺	-11.2471
难事	-11.2472
仍在	-11.2476
满心	-11.2477
不攻	-11.2477
▁张十五	-11.2478
这时候	-11.2478
白发	-11.248
自己性命	-11.248
出拳	-11.248
又怎会	-11.248
逼开	-11.248
胜他	-11.2481
前日	-11.2481
误解了	-11.2482
世界上	-11.2483
难报	-11.2489
相处	-11.2489
送上	-11.249
抓着	-11.2494
不坏	-11.2494
饶你	-11.2495
都感	-11.2496
喃喃的	-11.2497
大义	-11.2497
打算	-11.2498
溪水	-11.2501
将上去	-11.2503
已变	-11.2504
幸而他	-11.2506
引得	-11.2509
太多	-11.2511
后人	-11.2512
这可能是	-11.2515
▁那道士	-11.2517
抢先	-11.2519
深意	-11.2519
瞥眼	-11.2519
答允了	-11.2519
就怕	-11.252
收藏	-11.2522
要不要	-11.2523
任谁	-11.2524
记起	-11.2524
诗人	-11.2528
取笑	-11.2529
来找我	-11.2529
个圈子	-11.253
的效果	-11.2531
小朋友	-11.2533
路子	-11.2536
▁渔	-11.2537
处死	-11.2538
起身来	-11.2539
是不是可以	-11.2541
回马	-11.2542
约有	-11.2542
感奇怪	-11.2542
拍去	-11.2543
时光	-11.2545
▁过了良久	-11.2548
放回	-11.2549
在远处	-11.2549
只等	-11.255
处于	-11.2551
引起的	-11.2551
冷然	-11.2553
已抓住了	-11.2555
瞧瞧去	-11.2555
果是	-11.2557
▁我是不是	-11.2558
大位	-11.256
直向	-11.256
与马钰	-11.256
杀得好	-11.2564
言下	-11.2567
说得好	-11.2567
伐金	-11.2568
还需要	-11.2574
不离	-11.2576
我们兄弟	-11.2579
有甚么事	-11.2581
交换	-11.2581
手腕上	-11.2582
奔得	-11.2583
一成	-11.2584
荷	-11.2585
▁那农夫	-11.2588
▁焦木	-11.2588
击中	-11.259
并不是真的	-11.2591
想不起	-11.2592
立时就	-11.2594
就在这里	-11.2594
这里有	-11.2596
柯镇恶铁杖	-11.2597
谢了	-11.2597
双手齐	-11.2598
跟我们	-11.2599
有鬼	-11.2599
笑得	-11.2599
来找你	-11.2599
相貌	-11.26
倒地	-11.2602
的尊重	-11.2603
一想到	-11.2608
无疑	-11.2608
向敌人	-11.2614
一提	-11.2616
大刀	-11.2616
好似	-11.2617
胆小	-11.2617
快逃	-11.2622
随后跟	-11.2622
从头顶	-11.2627
冲去	-11.2628
不平	-11.263
要设法	-11.263
不相识	-11.2634
每晚	-11.2634
将过去	-11.2637
在他身旁	-11.2641
冲入	-11.2641
正急	-11.2645
年间	-11.2647
得远了	-11.265
只打得	-11.2654
在赵王府	-11.2655
有丝毫	-11.2659
见物	-11.266
那姑娘	-11.2663
骑了	-11.2664
放在怀	-11.2665
南归	-11.2666
形成的	-11.2666
其他人	-11.2667
天晚上	-11.2668
万难	-11.267
个小时	-11.2675
说他是	-11.268
却想	-11.268
将其	-11.268
无能	-11.2681
决不可	-11.2681
固是	-11.2682
我不信	-11.2685
然后再	-11.2686
着地滚	-11.269
这几句	-11.2696
不然	-11.2711
见他脸色	-11.2711
对待	-11.2716
你们两人	-11.2722
因为这	-11.2722
的功能	-11.2725
没见到	-11.273
出发	-11.2731
却始终	-11.274
人声	-11.2742
到嘉兴	-11.2745
远处传来	-11.2746
来瞧瞧	-11.2748
事实	-11.2749
可能是你	-11.2754
揖	-11.2756
▁待得	-11.2759
那小红马	-11.2761
数倍	-11.2761
做成	-11.2763
说着伸手	-11.2764
吃力	-11.2765
乘他	-11.2768
入海中	-11.2772
得呆了	-11.2775
大内	-11.2781
这次是	-11.2782
有的是	-11.2782
我现在	-11.2785
顿足	-11.2789
说得是	-11.2797
婆婆	-11.2801
也未必能	-11.2802
整整齐齐的	-11.2803
足够的	-11.2803
那两人	-11.2806
袍袖	-11.2809
是何	-11.2812
右边	-11.2816
橱门	-11.2817
也只得	-11.2823
那张	-11.2823
之期	-11.2824
望了	-11.2826
屋中	-11.2832
也不去	-11.2835
竟要	-11.2839
给周伯通	-11.2841
岁了	-11.2841
避开了	-11.2842
何用	-11.2846
草堆	-11.2848
进洞	-11.2863
养的	-11.2867
割下	-11.2873
向来不	-11.2873
十四	-11.2888
答应了	-11.2893
不早	-11.2894
而成	-11.2897
扑面	-11.2899
你怕	-11.2912
对欧阳克	-11.2916
说着便	-11.2921
胜于	-11.2932
为什么我的	-11.2939
也不愿	-11.2942
我正在	-11.2942
我怎能	-11.2945
声息	-11.2951
的规矩	-11.2953
是根据	-11.2954
无心	-11.2958
味道	-11.2958
一捏	-11.296
你瞧我	-11.2963
点去	-11.2968
身上穿	-11.2972
的家伙	-11.2975
能把	-11.2978
你也来	-11.2984
一搭	-11.2984
一行	-11.2989
这次他	-11.299
找回	-11.299
一沉	-11.2991
一只鸡	-11.2992
无法进行	-11.2996
加劲	-11.2997
取得	-11.2999
直刺	-11.3005
想起了	-11.3007
的人影	-11.3017
照射	-11.3019
瞧来	-11.3022
解说	-11.3029
挡得住	-11.3031
条鲨鱼	-11.3034
那小王爷	-11.3044
决不肯	-11.305
要先	-11.3051
把经文	-11.3056
▁这时郭靖	-11.3062
时而	-11.3073
思想	-11.3074
又见他	-11.3079
的想法	-11.3087
震断	-11.3094
拉住他的	-11.3096
待她	-11.3105
袍袖一	-11.3108
可能对	-11.3115
伤后	-11.3121
▁各人	-11.3121
他叔父	-11.3126
欧阳锋与裘千仞	-11.3127
村子	-11.3128
听洪七公	-11.3144
说些	-11.3146
十里	-11.3148
往上	-11.3149
听话	-11.3157
电源	-11.3159
真有	-11.3162
苦苦	-11.317
背向	-11.3171
看来这	-11.3172
一时倒	-11.3175
厕	-11.3184
刺杀	-11.3191
弹子	-11.3198
就算你	-11.3204
的攻击	-11.3207
城外	-11.3208
却如	-11.321
说法	-11.3215
郭靖跟着	-11.3228
不甚	-11.3234
夺去	-11.3234
因为地球	-11.3237
踪迹	-11.3238
▁郭靖听他	-11.324
会变	-11.324
五十	-11.3246
▁这一下	-11.3247
在洞口	-11.3247
这小小	-11.3249
一灯微笑	-11.3249
我刚才	-11.3251
太平	-11.3253
出奇	-11.3257
灯光	-11.3258
婚姻	-11.3261
发箭	-11.3264
跟我说	-11.3264
有失	-11.3265
是因为它	-11.3271
青蛇	-11.3273
三截	-11.3275
遇见	-11.3281
一别	-11.3293
两颗	-11.3298
比我	-11.3298
身侧	-11.3317
便似	-11.3318
杀伤	-11.3322
少年人	-11.3325
之所以	-11.3325
影响到	-11.3327
的力量	-11.3327
点地	-11.3329
撞见	-11.3334
一探	-11.3336
再好	-11.3338
报道	-11.3343
八九	-11.3351
在手中	-11.3353
不放心	-11.3356
才会	-11.3359
众人见他	-11.3359
并肩而	-11.3364
不上来	-11.3371
一十八年	-11.3374
好一阵	-11.3381
话未	-11.3386
耀	-11.3387
允许	-11.339
扑到	-11.3391
必要	-11.3394
向众人	-11.3394
不说话	-11.3395
你回去	-11.3395
被他们	-11.3405
几千	-11.3409
怎不	-11.3409
飞过	-11.3416
说了几句话	-11.3421
摔下	-11.3421
脚底	-11.3421
迈	-11.3425
这四人	-11.3425
掌击	-11.3426
在前面	-11.3426
女孩儿	-11.3429
会出现	-11.3429
▁完颜洪烈见	-11.3434
坐倒	-11.3443
迅	-11.3446
二三	-11.3459
虽知	-11.3461
袍	-11.3466
藏僧	-11.3467
留下了	-11.3468
抵敌	-11.3471
英雄豪杰	-11.3477
无仇	-11.3477
日久	-11.3486
流下	-11.3488
实现	-11.3489
又自	-11.349
厮	-11.3492
此人武功	-11.3511
郭靖急忙	-11.3512
双膝	-11.3514
襄阳	-11.3516
听他们	-11.3516
☆	-11.352
武术	-11.3527
相扶	-11.3528
青草	-11.3529
项	-11.3536
不耐烦	-11.3538
搂住	-11.3539
的事物	-11.3543
排成	-11.3545
下毒	-11.3548
逃得	-11.355
你可知	-11.3552
上卷经文	-11.3553
曲师哥	-11.3554
大片	-11.3555
委	-11.3556
老丐	-11.3558
是大金国的	-11.3562
禅房	-11.3564
空隙	-11.3566
该怎么办	-11.3567
适合	-11.3569
这段	-11.357
我徒儿	-11.357
不打紧	-11.357
何人	-11.3573
一拉郭靖	-11.3575
缆	-11.3575
瞧她	-11.3576
塘	-11.3577
茅	-11.3578
梢公	-11.3578
脸颊	-11.3578
漠	-11.3579
连说	-11.3579
锦帕	-11.3581
汗血宝马	-11.3582
吹奏	-11.3583
坚壁	-11.3583
缩回	-11.3583
拳风	-11.3583
酣斗	-11.3583
理论	-11.3584
金国钦使	-11.3584
允可	-11.3585
寝	-11.3586
筹划	-11.3586
你可能是	-11.3587
干系	-11.3589
帽	-11.3589
霎	-11.3589
不会有	-11.359
凄	-11.3591
肺	-11.3592
胎	-11.3592
藤	-11.3593
筷	-11.3593
型	-11.3594
聊	-11.3594
恍	-11.3594
搔	-11.3594
又想起	-11.3594
叛	-11.3594
缰	-11.3595
胖子	-11.3595
髻	-11.3595
丫	-11.3595
绣着	-11.3595
寨	-11.3597
刃锋	-11.3597
叹了一口	-11.3597
庸	-11.3598
泰	-11.3598
滩	-11.3598
绪	-11.3599
邦	-11.3599
凌	-11.3599
·	-11.3599
泣	-11.3599
愚	-11.3599
金龙鞭	-11.3599
币	-11.3599
鬓	-11.3599
耍	-11.36
伸伸舌头	-11.36
锚	-11.36
朦胧	-11.36
馆	-11.36
检	-11.36
津	-11.36
鬼门龙王	-11.36
冯	-11.36
这回事	-11.36
誉	-11.36
美人儿	-11.36
涕	-11.36
坦克	-11.36
茂	-11.36
阶	-11.36
盾	-11.36
旅	-11.36
依样葫芦	-11.3601
说不出口	-11.3601
y	-11.3601
司马迁	-11.3601
又好气又好笑	-11.3601
窒滞	-11.3601
性取向	-11.3601
敝	-11.3601
仓卒	-11.3601
心痒难搔	-11.3601
武功最强	-11.3601
那天竺僧人	-11.3601
销	-11.3601
b	-11.3601
其他国家	-11.3601
悄没声的	-11.3601
牧羊犬	-11.3601
似笑非笑	-11.3601
椎	-11.3601
司	-11.3601
低下了头	-11.3601
马王神韩宝驹	-11.3601
灵柩	-11.3601
开塞露	-11.3601
+	-11.3601
k	-11.3601
千方百计	-11.3601
噪	-11.3601
洗面奶	-11.3601
沟	-11.3601
议论	-11.3601
大功告成	-11.3601
忽都虎	-11.3601
浪得虚名	-11.3601
熄	-11.3601
佑	-11.3601
甘拜下风	-11.3601
网络用语	-11.3601
锵	-11.3601
弩	-11.3601
狂犬病	-11.3601
那童子	-11.3601
魄	-11.3601
剁	-11.3601
媚	-11.3601
差愕	-11.3601
造谣	-11.3601
呵	-11.3601
怎么回事	-11.3601
琴	-11.3601
嘲讽	-11.3601
家叔	-11.3601
救命之恩	-11.3601
瘤	-11.3601
瞬息之间	-11.3601
转过了头	-11.3601
鸳鸯五珍脍	-11.3601
鸳鸯织就欲双飞	-11.3601
地球的自转	-11.3601
壳	-11.3601
蕴	-11.3601
黄蓉抿嘴	-11.3601
妹妹	-11.3601
摇头晃脑	-11.3601
黄家妹子	-11.3601
HCl	-11.3601
俏	-11.3601
恒	-11.3601
冠英	-11.3601
腮	-11.3601
转过头去	-11.3601
相顾骇然	-11.3601
2000	-11.3601
洞房花烛	-11.3601
程序	-11.3601
哈里发	-11.3601
厘	-11.3601
糕	-11.3601
刷牙	-11.3601
批评	-11.3601
惩罚	-11.3601
廊	-11.3601
不约而同的	-11.3601
淹	-11.3601
瘫	-11.3601
胫	-11.3601
诛	-11.3601
香雪厅	-11.3601
娱乐	-11.3601
斫	-11.3601
浴	-11.3601
动画片	-11.3601
偎	-11.3601
扒	-11.3601
兴趣	-11.3601
盈	-11.3601
默不作声	-11.3601
巴格达	-11.3601
熄灭	-11.3601
东闪西	-11.3602
蹲下身来	-11.3602
夸父追日	-11.3602
灯笼	-11.3602
冈	-11.3602
在天之灵	-11.3602
认贼作父	-11.3602
喜出望外	-11.3602
粮食	-11.3602
元帅	-11.3602
的粉丝	-11.3602
就此罢手	-11.3602
T	-11.3602
激射而出	-11.3602
登峰造极	-11.3602
寡妇	-11.3602
掳掠	-11.3602
调匀呼吸	-11.3602
蓝牙	-11.3602
区区	-11.3602
机伶	-11.3602
目眩	-11.3602
胖瘦二丐	-11.3602
嫂子	-11.3602
余兆兴	-11.3602
渺	-11.3602
问明	-11.3602
出神入化	-11.3602
懊悔	-11.3602
无穷无尽	-11.3602
盖运聪	-11.3602
雀	-11.3602
梁老怪	-11.3602
偏袒	-11.3602
翠寒堂	-11.3602
诸葛亮	-11.3602
猎豹	-11.3602
排泄物	-11.3602
是何用意	-11.3602
勤修苦练	-11.3602
卜	-11.3602
移形换位	-11.3602
霞	-11.3602
愁眉苦脸	-11.3602
歧视	-11.3602
疑虑	-11.3602
拜伏在地	-11.3602
盘膝而坐	-11.3602
猿	-11.3602
永动机	-11.3602
展开轻功	-11.3602
邻居	-11.3602
伸出手去	-11.3602
炙	-11.3602
相应的	-11.3602
齐声喝彩	-11.3602
党	-11.3602
噗哧一	-11.3602
钦服	-11.3602
师姊	-11.3602
淮	-11.3602
闭上眼睛	-11.3602
标准	-11.3602
核酸	-11.3602
欧阳公子	-11.3602
胸膛	-11.3602
机器人	-11.3602
络	-11.3602
工资	-11.3602
仄	-11.3603
扑通一声	-11.3603
齐声欢呼	-11.3603
傲慢	-11.3603
完颜兄弟	-11.3603
施展轻功	-11.3603
眼前金星	-11.3603
困扰	-11.3603
告辞	-11.3603
兴奋	-11.3603
吹箫	-11.3603
展示	-11.3603
萧	-11.3603
是绿色	-11.3603
欺辱	-11.3603
跃下地来	-11.3603
转过头来	-11.3603
天下无敌	-11.3603
光明磊落	-11.3603
化学反应	-11.3603
扳桨	-11.3603
氮气	-11.3603
金盔	-11.3603
膺	-11.3603
委屈	-11.3603
可能会引起	-11.3603
寇	-11.3603
谭师哥	-11.3603
一忽儿	-11.3603
从怀里取出	-11.3603
一名武官	-11.3603
这会儿	-11.3603
奋勇	-11.3603
实力	-11.3603
那书记	-11.3603
保佑	-11.3603
倏忽之间	-11.3603
快如闪电	-11.3603
太监	-11.3604
乘隙	-11.3604
逃得性命	-11.3604
糟糕	-11.3604
臂膀	-11.3604
污泥	-11.3604
钓鱼	-11.3604
猜测	-11.3604
妒	-11.3604
鬼门龙王沙通天	-11.3604
W	-11.3604
舍友	-11.3604
约束	-11.3604
新元史	-11.3604
樱桃	-11.3604
遗训	-11.3604
瘟疫	-11.3604
民族	-11.3604
一时说不出话来	-11.3605
精研	-11.3605
秘密	-11.3605
记录	-11.3605
这部经书	-11.3605
城市	-11.3605
隔壁	-11.3605
捏造	-11.3605
脑海中	-11.3605
久仰	-11.3605
求恳	-11.3605
统领	-11.3605
夸张	-11.3605
扭曲	-11.3605
任凭	-11.3605
恍然	-11.3605
站在一旁	-11.3605
周密	-11.3605
妙策	-11.3605
凶恶	-11.3605
抵挡得住	-11.3605
主要用于	-11.3605
病友	-11.3605
墙壁	-11.3605
唱歌	-11.3605
不敢逼近	-11.3606
可怖	-11.3606
紧闭	-11.3606
面貌	-11.3606
依靠	-11.3606
转舵	-11.3606
连声答应	-11.3606
铁箫	-11.3606
逊	-11.3606
十五招	-11.3606
体温	-11.3606
猴子	-11.3606
装备	-11.3606
站在当地	-11.3606
肥肉	-11.3606
并不适合	-11.3606
凝思	-11.3606
也不以为意	-11.3606
愁苦	-11.3607
照料	-11.3607
是为了保护	-11.3607
胎儿	-11.3607
这个说法	-11.3607
站稳	-11.3607
术语	-11.3607
傻哥哥	-11.3607
防护	-11.3607
怎肯	-11.3607
这三人	-11.3607
表达方式	-11.3607
握拳	-11.3607
患者	-11.3607
安静	-11.3608
公元	-11.3608
同伴	-11.3608
黄河	-11.3608
务须	-11.3608
苦恼	-11.3608
逼迫	-11.3608
泄露	-11.3608
无聊	-11.3608
尖利	-11.3608
线索	-11.3608
密令	-11.3608
铁尸梅超风	-11.3609
剧情	-11.3609
流泪	-11.3609
红肿	-11.3609
进击	-11.3609
诗词	-11.3609
是非常重要的	-11.3609
动漫	-11.3609
自己身上	-11.3609
帽子	-11.3609
遍地都是	-11.3609
观赏	-11.3609
紧迫	-11.3609
他妈的	-11.3609
明珠	-11.3609
半寸	-11.3609
分毫	-11.361
受辱	-11.361
睁着	-11.361
那柄匕首	-11.361
机制	-11.361
异样	-11.361
性质	-11.361
脱险	-11.361
你们两个娃娃	-11.361
大发脾气	-11.361
庙门	-11.361
斗胆	-11.3611
称谢	-11.3611
幸喜	-11.3611
精致	-11.3611
毒蛇咬	-11.3611
隐约	-11.3611
解答	-11.3611
发颤	-11.3611
正午	-11.3611
虚劈	-11.3611
动上手	-11.3611
冰冷	-11.3612
难以抵挡	-11.3612
节拍	-11.3612
手中拿着	-11.3612
得意之极	-11.3612
纵身上前	-11.3612
王师弟	-11.3612
砖头	-11.3612
不住倒退	-11.3612
初次	-11.3613
马嘶	-11.3613
大拇指	-11.3613
萍	-11.3613
主持	-11.3613
受重伤	-11.3613
长嘶	-11.3613
使将出来	-11.3613
榻上	-11.3613
酒席	-11.3613
渐远	-11.3613
有病	-11.3613
算不算	-11.3613
厉害无比	-11.3614
或以	-11.3614
三丐	-11.3614
洞穴	-11.3614
巨石	-11.3614
不禁骇然	-11.3614
掩面	-11.3614
电压	-11.3614
铁鞭	-11.3614
绝世	-11.3614
退了出去	-11.3614
词语	-11.3614
十多年前	-11.3615
伸手扶起	-11.3615
一百个	-11.3615
发愁	-11.3615
热量	-11.3615
一瞥	-11.3615
弄鬼	-11.3615
图像	-11.3615
低呼	-11.3616
黑衣	-11.3616
如果你是在	-11.3616
领军	-11.3616
报应	-11.3616
嘴边	-11.3617
字面意思	-11.3617
低沉	-11.3617
未答	-11.3617
仙女	-11.3617
家父	-11.3617
挺枪	-11.3617
罗马	-11.3618
己方	-11.3618
战场	-11.3618
碰上	-11.3618
太公	-11.3618
最终	-11.3618
民间	-11.3618
战争	-11.3618
相触	-11.3618
忽听身后	-11.3619
端坐	-11.3619
才智	-11.3619
官军	-11.3619
大海之中	-11.3619
永远不会	-11.3619
"、"	-11.3619
屋外	-11.362
斗志	-11.362
儿童	-11.362
长杆	-11.362
矮身	-11.362
仆役	-11.362
冰箱	-11.362
至宝	-11.3621
出征	-11.3621
四顾	-11.3621
所擒	-11.3621
疑难	-11.3622
所使的	-11.3622
铁碗	-11.3622
红包	-11.3622
黑衣人	-11.3622
细微	-11.3622
来见我	-11.3623
精微	-11.3623
空洞	-11.3623
相聚	-11.3624
提了起来	-11.3624
明朝	-11.3624
增长	-11.3625
金钱	-11.3625
酒量	-11.3625
茅屋	-11.3625
大缆	-11.3625
顺口	-11.3625
打断	-11.3626
先父	-11.3626
这些地方	-11.3626
奇险	-11.3626
伸手接过	-11.3626
一缕	-11.3626
露面	-11.3627
升起	-11.3627
举步	-11.3627
自恃	-11.3627
重复	-11.3628
此际	-11.3628
失色	-11.3628
不敢再看	-11.3628
险些儿	-11.3628
仆人	-11.3628
出岛	-11.3629
暗骂	-11.3629
意图	-11.3629
强调	-11.363
后患	-11.363
火腿	-11.363
血流	-11.363
风吹	-11.363
触手	-11.363
戴着	-11.3631
疾风	-11.3631
梁子	-11.3631
搂住了	-11.3631
两个月	-11.3631
这一出手	-11.3631
了几分	-11.3631
重赏	-11.3632
气象	-11.3632
大感诧异	-11.3632
酒精	-11.3632
银两	-11.3632
黑云	-11.3633
精进	-11.3633
天权	-11.3633
温柔	-11.3633
攻城	-11.3633
难民	-11.3633
马群	-11.3633
整天	-11.3633
做梦	-11.3633
感知	-11.3634
令爱	-11.3634
清明	-11.3634
动物园	-11.3635
自以为	-11.3635
不教	-11.3635
新招	-11.3635
留情	-11.3635
甚深	-11.3636
外功	-11.3636
隆起	-11.3636
易于	-11.3637
自创	-11.3637
一伙	-11.3637
眼见就要	-11.3637
回复	-11.3637
并不一定	-11.3638
厢房	-11.3638
是中国古代	-11.3638
一连	-11.3639
归云庄上	-11.3639
天堂	-11.364
藏身	-11.364
眼见她	-11.364
金刚	-11.3641
莫名	-11.3641
出家人	-11.3641
我和靖哥哥	-11.3641
向后急	-11.3641
真人	-11.3641
拍马	-11.3642
书信	-11.3643
猛攻	-11.3643
教派	-11.3643
重新	-11.3643
众金兵	-11.3644
舱中	-11.3644
只知	-11.3644
体外	-11.3645
懒得	-11.3646
曾经	-11.3646
厉害之极	-11.3646
名目	-11.3647
一匹马	-11.3648
上门	-11.3648
极少	-11.3649
做皇帝	-11.3649
这首诗	-11.3649
一轮	-11.3649
做饭	-11.3649
家师	-11.3649
吹起	-11.365
详细	-11.3651
咬牙切齿的	-11.3651
园中	-11.3651
在体内	-11.3652
亲近	-11.3652
这傻姑	-11.3652
赶快	-11.3652
盲人	-11.3654
亲传	-11.3654
情不自禁的	-11.3654
那丐	-11.3654
活命	-11.3654
这法儿	-11.3655
欧阳锋叔侄	-11.3656
带兵	-11.3656
本想	-11.3657
纵使	-11.3659
机灵	-11.3659
成一个	-11.3659
开心	-11.366
地位	-11.3661
更甚	-11.3662
无双	-11.3662
此书	-11.3663
错啦	-11.3664
相通	-11.3664
百斤	-11.3664
饮用	-11.3665
忽变	-11.3665
放在地下	-11.3665
下联	-11.3665
围着	-11.3665
突出	-11.3666
文才	-11.3667
往哪里	-11.3668
咕嘟咕嘟的	-11.3668
一顿饭	-11.367
如果你认为	-11.367
遗言	-11.3671
之故	-11.3672
有几个	-11.3673
不支	-11.3676
横行	-11.3677
跟老毒物	-11.3677
好极了	-11.3679
给你吃	-11.3679
藏着	-11.368
一筹	-11.368
城墙	-11.368
赶着	-11.3681
我宁可	-11.3681
只见地下	-11.3682
你们两位	-11.3682
▁☆	-11.3682
慢着	-11.3683
生孩子	-11.3683
有一定的	-11.3685
内外	-11.3687
处女	-11.3687
端的是	-11.3687
!’”	-11.3688
未得	-11.3688
一篇	-11.3689
本人	-11.3689
断折	-11.3689
击落	-11.3691
相击	-11.3692
七师父	-11.3693
为主	-11.3693
三军	-11.3694
要强	-11.3694
不枉了	-11.3695
岂有	-11.3695
捧住	-11.3697
取水	-11.3697
细心	-11.3697
并没	-11.3697
直至	-11.3698
教了我	-11.37
郭靖想起	-11.37
凡是	-11.3701
推倒	-11.3701
世人	-11.3701
在太湖	-11.3702
高深	-11.3702
性急	-11.3703
服用	-11.3704
在窗外	-11.3705
下地来	-11.3705
得滚瓜烂熟	-11.3706
指上	-11.3707
心地	-11.3708
无怪	-11.3709
恢	-11.371
分数	-11.3711
在他背上	-11.3712
水军	-11.3714
忽有	-11.3714
洪七公骂	-11.3716
看破	-11.372
你的眼睛	-11.372
深夜	-11.3722
疾往	-11.3722
遮住	-11.3722
道姑	-11.3723
用上了	-11.3725
鼻中	-11.3725
两眼	-11.3726
可怕	-11.3726
治病	-11.3727
暗藏	-11.3727
郭靖听她	-11.3727
受力	-11.3728
练气	-11.3729
外家	-11.3729
一面说	-11.3729
大部分	-11.373
做法	-11.3732
水势	-11.3732
人群	-11.3733
西湖	-11.3733
部小说	-11.3735
有座	-11.3735
是全真教	-11.3735
看招	-11.3736
急攻	-11.3736
糟了	-11.3737
苦楚	-11.3737
驰来	-11.3739
扬起	-11.374
见了这	-11.3741
却不敢	-11.3743
引见	-11.3748
飞回	-11.3748
事件	-11.375
早晨	-11.3752
转身便	-11.3754
亭中	-11.3757
天时	-11.3757
一丈	-11.3757
即可	-11.3758
我怕	-11.3758
那些人	-11.3759
也决不能	-11.3759
贪图	-11.3762
又复	-11.3762
据说	-11.3764
大险	-11.3764
任何人	-11.3765
响起	-11.3765
与全金发	-11.3765
软猬甲上	-11.3766
长声	-11.3766
绘的	-11.3768
跌得	-11.3769
药材	-11.377
不乐意	-11.377
似乎是	-11.3772
的表现	-11.3773
难看	-11.3774
在嘉兴	-11.3774
第三个	-11.3776
你爹	-11.3778
的敌手	-11.3778
你可以通过	-11.3781
快请	-11.3786
冲着	-11.3787
你怎么又	-11.3788
与六怪	-11.3791
可以帮助	-11.3791
早已将	-11.3792
无法直接	-11.3797
和蓉儿	-11.3797
睡得	-11.3798
这法子	-11.38
终究是	-11.38
居中	-11.3804
颇感	-11.3804
击出	-11.3805
淡淡的	-11.3808
郭靖应	-11.3808
走动	-11.3808
取过	-11.3809
这只是一种	-11.381
钻进	-11.3811
的徒儿	-11.3811
▁6	-11.3813
两指	-11.3814
照耀	-11.3814
当下也不	-11.3814
不曾	-11.3819
布成	-11.382
转头问	-11.382
那乞丐	-11.3821
我一生	-11.3822
越好	-11.3822
之喜	-11.3823
一程	-11.3825
去请	-11.383
偷听	-11.3831
又是甚么	-11.3832
一大片	-11.3832
十八年前	-11.3834
收留	-11.3834
背负	-11.3835
对身体	-11.3837
扑在	-11.3838
在武林中	-11.3839
的方向	-11.384
台上	-11.3841
给它	-11.3841
却总是	-11.3842
但因	-11.3847
没有任何	-11.3848
上次	-11.3849
虽无	-11.385
无处	-11.3851
与侯通海	-11.3852
请道长	-11.3853
大英雄	-11.3854
将他身子	-11.3855
目不	-11.3855
学着	-11.3855
转出	-11.3857
自动	-11.3858
第二个	-11.3858
缩手	-11.3859
人称	-11.3863
一插	-11.3864
会增加	-11.3864
的问题	-11.3866
胡涂了	-11.387
做大汗	-11.3874
即将	-11.3874
罩在	-11.3874
▁这可能是因为你的	-11.3877
太大	-11.3879
还可以	-11.3881
帮他	-11.3882
未死	-11.3884
扑向	-11.3884
你说我	-11.3884
是个女子	-11.3885
回头向	-11.3885
永远不	-11.3886
地铁	-11.3891
还是会	-11.3892
之伤	-11.3893
说不得	-11.3895
的运动	-11.3895
袭到	-11.3897
非法	-11.3897
停了	-11.3898
失落	-11.3902
上海	-11.3903
对掌	-11.3909
落后	-11.392
席上	-11.3925
即使是	-11.3928
出城	-11.3931
好极	-11.3932
二十四	-11.3932
均知	-11.3935
跟你说	-11.3935
那时我	-11.3935
直扑	-11.3936
▁郭靖听得	-11.3937
只怕是	-11.3941
大战	-11.3942
的形象	-11.3944
下峰	-11.3946
无异状	-11.3947
之名	-11.3947
左手抓住	-11.3948
的姓名	-11.3954
叫甚么	-11.3955
就只怕	-11.3968
我大宋	-11.3969
骑在	-11.3971
决不是	-11.398
干么要	-11.398
他后颈	-11.3983
喝得	-11.3986
是甚么人	-11.3987
说得出	-11.3988
过后	-11.3989
不料他	-11.399
个性	-11.3992
▁那女子	-11.3992
发见	-11.3993
的重量	-11.3993
神龙	-11.3994
当时我	-11.3996
喝令	-11.3997
书上	-11.4005
咬住	-11.4005
文学	-11.401
的清洁	-11.4013
▁不需要	-11.4016
十余人	-11.4021
大敌	-11.4022
心急	-11.4023
何况他	-11.4029
输在	-11.4031
小事	-11.4031
丐帮帮众	-11.4034
凭他	-11.4034
▁拔都	-11.4034
练练	-11.4042
猛冲	-11.4046
情急	-11.4047
相干	-11.4049
遇到了	-11.405
店房	-11.4051
舍下	-11.4054
离去	-11.4055
我丈夫	-11.4062
有言	-11.4063
逼我	-11.4064
有其	-11.4067
早死	-11.4069
你的朋友	-11.407
无一不	-11.4071
一桩	-11.4072
与完颜洪烈	-11.4072
远去	-11.408
一刺	-11.408
插了	-11.4085
驰出	-11.4086
我国	-11.4089
千夫长	-11.4091
出数里	-11.4094
容情	-11.41
水滴	-11.41
每一个	-11.41
成人	-11.4103
▁过了	-11.4104
上升	-11.4104
身法好	-11.4114
一抬头	-11.412
▁第十	-11.4122
郭靖手中	-11.4122
了郭靖的手	-11.4123
头脑	-11.4138
排列	-11.4139
奔过去	-11.4149
一勾	-11.415
才想起	-11.4151
出现了	-11.4153
对杨康	-11.4157
这是个	-11.4159
拉了郭靖	-11.416
有本事	-11.4161
把匕首	-11.4161
跪倒	-11.4162
了好一阵	-11.4164
帮主之位	-11.4165
出自	-11.4165
临死	-11.4167
在江南	-11.417
就跑	-11.4172
接任	-11.4172
你怎能	-11.4174
突然想起	-11.4174
我若不	-11.4175
会破坏	-11.4176
拍拍两	-11.4178
这种情况	-11.419
拔下	-11.4194
的过程中	-11.4203
阻挡	-11.4214
有理	-11.4214
黄蓉又问	-11.4214
不作声	-11.4217
躲过	-11.422
▁窝阔台	-11.4221
不快	-11.4229
还想	-11.4234
与华筝	-11.4237
眼见这	-11.4243
▁张阿生	-11.4243
可以让	-11.4251
为何	-11.4253
树梢	-11.4255
等着	-11.4261
均觉	-11.4263
不加理会	-11.4265
绞盘	-11.4273
有声	-11.4274
心口	-11.4275
的脑袋	-11.4282
一挣	-11.4286
高峰	-11.4293
回房	-11.4295
弹出	-11.4297
想到自己	-11.4299
只手	-11.4299
追问	-11.4303
额上	-11.4307
掌影	-11.4312
怪物	-11.4313
只要一	-11.4316
给了你	-11.4317
退回	-11.4317
到门口	-11.4318
为什么会	-11.432
好呢	-11.4324
我们两人	-11.4326
数千	-11.433
说话时	-11.4337
笑语	-11.4337
声大作	-11.4342
再回来	-11.4343
)、	-11.4345
湖水	-11.4346
与其	-11.4346
对啦	-11.4347
不报	-11.4359
叽哩咕噜的	-11.4363
包药	-11.4368
转来	-11.4369
想通	-11.4373
树下	-11.4375
我跟你说	-11.4376
都曾	-11.4388
扯下	-11.439
双目已	-11.4392
学者	-11.4393
野羊	-11.4395
转到	-11.4396
一切都	-11.4397
我不说	-11.4397
后缩	-11.4416
了开来	-11.4435
清洗	-11.4441
都不会	-11.445
问话	-11.4458
攻势	-11.4458
七八个	-11.4465
辆	-11.4475
北上	-11.4477
中了一	-11.4478
喊声大	-11.4478
还怕	-11.4481
H	-11.4488
的主意	-11.449
合适	-11.4491
没入	-11.4493
的角度	-11.4503
不容	-11.4504
不容情	-11.4512
精光	-11.4516
下击	-11.452
逃走了	-11.4521
河南	-11.4531
说知	-11.4533
离地	-11.4533
就算再	-11.4541
这么大	-11.4544
郭靖大奇	-11.4549
步而行	-11.4555
纵出	-11.4557
腋下	-11.4559
其名	-11.4562
的弟弟	-11.4563
攻上	-11.4565
的皮肤	-11.4565
不会改变	-11.457
一缩	-11.4571
投入	-11.4574
那蛇	-11.4589
赫然是	-11.4591
救出	-11.4593
不答应	-11.4602
筋斗	-11.4604
想得到	-11.4604
微感	-11.4608
待见	-11.4615
随后	-11.4617
小妹	-11.4619
前伸	-11.4624
走过	-11.4626
忙俯身	-11.4627
不相干	-11.463
岳州	-11.4631
的行动	-11.4634
而立	-11.4634
少主	-11.4635
都觉	-11.4637
有无	-11.4641
微光	-11.4641
第二天	-11.4644
盖了	-11.4648
用刀	-11.465
快出来	-11.4653
群鲨	-11.4653
算甚么	-11.4654
去摸	-11.4657
提出	-11.4663
微有	-11.4683
是不是要	-11.4705
后梢	-11.4707
只怕也	-11.4708
你快去	-11.4709
支付	-11.4709
难怪	-11.4709
山崖	-11.4714
出数丈	-11.4715
是假	-11.4718
最怕	-11.4721
他生平	-11.4724
郭靖掌力	-11.4732
相劝	-11.4734
钉在	-11.4748
已失	-11.477
跪在	-11.4772
在那里	-11.4773
急忙缩	-11.4774
拳头	-11.4776
出宫	-11.4778
掏	-11.4782
磕了	-11.4783
打成	-11.479
几颗	-11.4792
原也	-11.4794
使其	-11.4795
好让	-11.4798
哭得	-11.4799
被封	-11.4802
二弟	-11.4806
可知	-11.4808
了半个	-11.4817
不禁暗暗	-11.4819
是怎生	-11.4823
身受	-11.4826
安稳	-11.4829
门缝中	-11.4831
转身就	-11.4836
合十	-11.4837
是因为他	-11.484
杀了我	-11.4858
赢了	-11.4866
去盗	-11.4866
向梁子翁	-11.4866
眼皮	-11.4867
三句	-11.4875
了六七	-11.4875
莽撞	-11.4876
略有	-11.4879
却原来	-11.4883
锦旗	-11.4885
栽	-11.4889
郭靖吓了一跳	-11.4891
金带	-11.4891
帐前	-11.4892
堵	-11.4897
日常	-11.4898
鸡腿	-11.4899
在内	-11.4901
趣	-11.4902
停手	-11.4907
收掌	-11.4911
点头答应	-11.4913
嵌	-11.4917
他一生	-11.4919
一步步	-11.4922
所为	-11.4922
身来	-11.4923
足不	-11.4924
等因素	-11.4931
批	-11.4932
想吃	-11.4934
左近	-11.4935
她手腕	-11.4944
为甚么要	-11.4951
的角度来	-11.4954
轰然	-11.4955
置之	-11.4957
中国传统	-11.4957
但这并不能	-11.4958
买了一	-11.4959
也感	-11.4959
铜钹	-11.4963
曲子	-11.4964
叔侄	-11.4966
临安城	-11.4966
溜下	-11.4968
加重	-11.4969
长度	-11.497
去找寻	-11.4971
进宫	-11.4972
效率	-11.4973
城门	-11.4975
是形容	-11.4976
闪烁	-11.4976
杀害	-11.4978
呆望	-11.498
不提防	-11.4981
恭喜	-11.4981
恩怨	-11.4983
出全力	-11.4983
为什么不能	-11.4986
秘诀	-11.4987
这时见他	-11.4988
歌词	-11.4988
举掌	-11.4989
斗智	-11.4989
众姬	-11.4991
曲曲折折	-11.4991
眼睁睁的	-11.4993
舟中	-11.4993
规律	-11.4994
程度	-11.4994
成名	-11.4995
笑了起来	-11.4996
丘处机等	-11.4997
说不出话	-11.4997
缕	-11.5
蒲团	-11.5002
遥	-11.5003
理解为	-11.5003
尺来长的	-11.5004
了半截	-11.5006
妖妇	-11.5006
睁	-11.5007
飞脚	-11.5009
势凌厉	-11.501
构	-11.5011
偿	-11.5012
炕	-11.5012
错误	-11.5012
在月光下	-11.5013
泄	-11.5014
著名	-11.5014
例	-11.5017
凳上	-11.5017
的手法	-11.5018
稳定	-11.5019
深仇	-11.5021
惶	-11.5021
模	-11.5022
送去	-11.5023
唤	-11.5023
族人	-11.5023
妄	-11.5024
颠	-11.5024
晨	-11.5025
悍	-11.5025
趋	-11.5025
阅	-11.5025
坦	-11.5025
斑	-11.5026
醒悟	-11.5026
莲	-11.5026
你不知道	-11.5026
介	-11.5026
栏	-11.5027
涛	-11.5027
蓄	-11.5027
徐	-11.5027
纤	-11.5027
臭尿	-11.5028
添	-11.5028
辔	-11.5028
浆	-11.5028
束手无策	-11.5028
控	-11.5028
迸	-11.5028
肆	-11.5028
惑	-11.5028
细问	-11.5028
碧波掌法	-11.5028
帧	-11.5028
直升机	-11.5028
秤	-11.5029
谢天谢地	-11.5029
上官帮主	-11.5029
呼呼风响	-11.5029
溺	-11.5029
蜜	-11.5029
蒲儿帖	-11.5029
瞪了一眼	-11.5029
汴梁	-11.5029
大手印	-11.5029
小孩儿	-11.5029
脸色苍白	-11.5029
画蛇添足	-11.5029
两败俱伤	-11.5029
鼓励	-11.5029
朴	-11.5029
P	-11.5029
杜甫	-11.5029
密密层层	-11.5029
抑	-11.5029
飒	-11.5029
踱	-11.5029
天已大明	-11.5029
查察	-11.5029
缨	-11.5029
难解难分	-11.5029
饵	-11.5029
三枚	-11.5029
玄门正宗	-11.5029
酷	-11.5029
三头蛟	-11.5029
双手互搏	-11.5029
汉武帝	-11.5029
唳	-11.5029
序	-11.5029
淫	-11.5029
磕了四个头	-11.5029
郝	-11.5029
需要考虑到	-11.5029
充气娃娃	-11.5029
喀喀	-11.5029
被狗咬	-11.5029
次子察合台	-11.5029
=	-11.5029
我们应该尊重	-11.5029
捉迷藏	-11.5029
易如反掌	-11.5029
梵语	-11.5029
诞	-11.5029
🤔	-11.5029
端端正正的	-11.5029
几个时辰	-11.5029
奴隶	-11.5029
影流之主	-11.5029
新冠病毒	-11.5029
死里逃生	-11.5029
心意已决	-11.5029
柯大爷	-11.5029
洞庭湖	-11.5029
头下脚上	-11.5029
血缘关系	-11.5029
虏	-11.5029
库里尔台	-11.503
点亮了	-11.503
肯德基	-11.503
防腐剂	-11.503
结结巴巴的	-11.503
见识见识	-11.503
购	-11.503
两面性	-11.503
地理位置	-11.503
活得不耐烦了	-11.503
这倒奇了	-11.503
安安静静的	-11.503
葱	-11.503
铐	-11.503
青蛙	-11.503
八月中秋	-11.503
刷刷刷	-11.503
在紧急情况下	-11.503
清净散人	-11.503
蹑	-11.503
卵	-11.503
奋不顾身	-11.503
报仇雪恨	-11.503
避雷针	-11.503
诊断	-11.503
堪堪	-11.503
生病	-11.503
警察	-11.503
30	-11.503
克敌制胜	-11.503
愠	-11.503
癫	-11.503
捶	-11.503
生物学上	-11.503
喜不自胜	-11.503
奇经八脉	-11.503
各家各派	-11.503
蚕	-11.503
如箭般	-11.503
昆凌	-11.503
染色体	-11.503
殃	-11.503
洪伯父	-11.503
垫	-11.503
狼狈不堪	-11.503
电子设备	-11.503
险象环生	-11.503
拉着郭靖的手	-11.503
凶多吉少	-11.503
卑职	-11.503
心满意足	-11.503
汁	-11.503
阶段	-11.503
我命休矣	-11.503
横练功夫	-11.503
沙滩	-11.503
渔樵耕读	-11.503
航	-11.503
蒲扇	-11.503
连人带	-11.503
凋	-11.503
寂静无声	-11.503
绵绵	-11.503
九阴神功	-11.503
彩虹	-11.503
精神分裂	-11.503
拿在手里	-11.503
无路可走	-11.503
玉阳子王处一	-11.503
瓷瓶	-11.503
低沉了声音	-11.503
窘	-11.503
提心吊胆	-11.503
演员	-11.503
疚	-11.503
隐隐作痛	-11.503
爆	-11.503
酬	-11.503
得意洋洋的	-11.503
斩钉截铁	-11.503
轻描淡写	-11.503
齐声呐喊	-11.503
巫师	-11.503
偏僻	-11.503
拚个你死我活	-11.503
羡慕	-11.503
天真烂漫	-11.503
姨妈	-11.503
胡里胡涂	-11.503
越说越	-11.503
煤气泄漏	-11.503
不寒而栗	-11.503
为非作歹	-11.503
臻	-11.503
无缘无故	-11.503
攀援	-11.503
喝了一大口酒	-11.503
殴	-11.503
比划比划	-11.503
诺	-11.503
从腰间拔出	-11.503
可怜未老头先白	-11.503
孤零零的	-11.503
打他不过	-11.503
梁三长老	-11.5031
半斤八两	-11.5031
焦虑	-11.5031
饱餐	-11.5031
合不拢	-11.5031
迟了一步	-11.5031
二次华山论剑	-11.5031
雨滴	-11.5031
领域	-11.5031
却是个	-11.5031
那对白雕	-11.5031
110	-11.5031
缘故	-11.5031
僧袍	-11.5031
身材魁梧	-11.5031
黄葛短	-11.5031
三股叉	-11.5031
恭谨	-11.5031
主帅	-11.5031
向旁跃开	-11.5031
那姓穆的	-11.5031
铁脚仙	-11.5031
万里迢迢的	-11.5031
洪老帮主	-11.5031
清晰	-11.5031
烦躁	-11.5031
窍	-11.5031
财富	-11.5031
籍	-11.5031
驾驶	-11.5031
繁华	-11.5031
夸父	-11.5031
宇	-11.5031
惨厉	-11.5031
戏剧	-11.5031
晋	-11.5031
缠绵	-11.5031
清脆	-11.5031
结义之情	-11.5031
众兵丁	-11.5031
暴跳如雷	-11.5031
两名官军	-11.5031
姜	-11.5031
自相残杀	-11.5031
通常用来形容	-11.5031
那矮小汉子	-11.5031
一排排	-11.5031
越打越	-11.5031
手足无措	-11.5031
硬币	-11.5031
铲	-11.5031
松鼠	-11.5031
餐厅	-11.5031
个颜良	-11.5031
EXO	-11.5031
喀喀两声	-11.5031
大嫂	-11.5031
回归	-11.5031
预备	-11.5031
飞驰而	-11.5031
颂	-11.5031
岳丈	-11.5031
是真是假	-11.5031
运营	-11.5031
监视	-11.5032
所居的	-11.5032
不顾一切	-11.5032
威风凛凛	-11.5032
驾临	-11.5032
18	-11.5032
吾	-11.5032
央求	-11.5032
禁止	-11.5032
言出如山	-11.5032
残忍	-11.5032
巍	-11.5032
敬畏	-11.5032
牛奶	-11.5032
凝神倾听	-11.5032
不明其意	-11.5032
揪住	-11.5032
坪	-11.5032
梵文	-11.5032
武艺高强	-11.5032
沿途	-11.5032
俊雅	-11.5032
假设	-11.5032
藉	-11.5032
当啷一	-11.5032
炎热	-11.5032
瞪目	-11.5032
旗号	-11.5032
犁头	-11.5032
的体重	-11.5032
负责	-11.5032
▁这是一个比喻	-11.5032
月饼	-11.5032
倏忽间	-11.5032
西北风	-11.5032
退了两步	-11.5032
肥胖	-11.5032
青龙滩	-11.5032
关羽	-11.5032
机缘	-11.5032
蹲在地下	-11.5032
不知所云	-11.5032
纯熟	-11.5032
呼呼喘气	-11.5032
及不上	-11.5032
挑拨	-11.5033
共享	-11.5033
在他耳边	-11.5033
昆	-11.5033
羊梯	-11.5033
财宝	-11.5033
雪碧	-11.5033
木材	-11.5033
内功深湛	-11.5033
创造	-11.5033
劝慰	-11.5033
祖父	-11.5033
铁八卦	-11.5033
跃入海中	-11.5033
素不相识	-11.5033
证据	-11.5033
女孩儿家	-11.5033
连绵	-11.5033
从小就	-11.5033
丘师哥	-11.5033
版本	-11.5033
农药	-11.5033
室友	-11.5033
认识	-11.5033
犯罪	-11.5033
争吵	-11.5033
倒也罢了	-11.5033
翻阅	-11.5033
胸腹	-11.5033
急奔而来	-11.5033
探访	-11.5033
还了一招	-11.5033
精神疾病	-11.5033
郭师叔	-11.5033
抛弃	-11.5033
隐私	-11.5033
这对白雕	-11.5033
仇恨	-11.5033
捕捉	-11.5033
谢罪	-11.5033
首级	-11.5033
占便宜	-11.5033
粗浅	-11.5033
太祖	-11.5034
元素	-11.5034
灵智	-11.5034
利刃	-11.5034
深奥	-11.5034
筋骨	-11.5034
国际	-11.5034
动起手来	-11.5034
讲究	-11.5034
复仇	-11.5034
枝叶	-11.5034
点了穴道	-11.5034
奸恶	-11.5034
遇险	-11.5034
蓬	-11.5034
楼板	-11.5034
乔寨主	-11.5034
侧耳听	-11.5034
没趣	-11.5034
罗汉	-11.5034
一大块	-11.5034
梦中	-11.5034
隔室	-11.5034
池穴	-11.5034
顾客	-11.5034
这当儿	-11.5034
天下无双	-11.5034
文章	-11.5034
现场	-11.5034
媳妇儿	-11.5034
七侠	-11.5035
看不清楚	-11.5035
参仙老怪梁子翁	-11.5035
翠微	-11.5035
碰巧	-11.5035
繁复	-11.5035
遭遇	-11.5035
迁怒	-11.5035
远征	-11.5035
海螺	-11.5035
优势	-11.5035
更无丝毫	-11.5035
热血	-11.5035
考证	-11.5036
屋角	-11.5036
穷酸	-11.5036
坚冰	-11.5036
武林高手	-11.5036
浑厚	-11.5036
老侯	-11.5036
星星	-11.5036
所有人都	-11.5036
御敌	-11.5036
虚晃	-11.5036
自然现象	-11.5036
白兔	-11.5036
贵姓	-11.5036
邪恶	-11.5036
我偏不	-11.5036
吼叫	-11.5037
西夏	-11.5037
轻轻抚摸	-11.5037
关闭	-11.5037
连连摇头	-11.5037
释放	-11.5037
滚滚	-11.5037
以一敌	-11.5037
各执	-11.5037
颤动	-11.5037
没有必要	-11.5037
这部书	-11.5037
七寸	-11.5037
▁郭靖和黄蓉	-11.5037
份量	-11.5037
正是求之不得	-11.5037
毒素	-11.5037
岂难道	-11.5037
救人哪	-11.5038
学武之人	-11.5038
生理现象	-11.5038
清凉	-11.5038
满头大汗	-11.5038
牛顿	-11.5038
远远望见	-11.5038
亲卫	-11.5038
另一端	-11.5038
仗剑	-11.5038
阴阳	-11.5038
叫了几声	-11.5038
旨意	-11.5038
听她语气	-11.5038
夹攻	-11.5038
搜寻	-11.5038
君主	-11.5039
试探	-11.5039
黄某	-11.5039
鸡汤	-11.5039
圆球	-11.5039
数据	-11.5039
锋利	-11.5039
袍子	-11.5039
拳术	-11.5039
窗口	-11.504
男装	-11.504
窗边	-11.504
怒从心	-11.504
下盘功夫	-11.504
言辞	-11.504
大声吆喝	-11.504
胸怀	-11.504
凑近	-11.504
两个乞丐	-11.504
难为你	-11.504
圆形	-11.504
吸管	-11.504
缓解	-11.504
走上前去	-11.504
灭火	-11.5041
闭眼	-11.5041
等三人	-11.5041
两枚	-11.5041
盘膝坐下	-11.5041
再也动弹不得	-11.5041
德国	-11.5041
恐高	-11.5041
无人敢	-11.5041
重逢	-11.5041
风景	-11.5041
使诈	-11.5041
册子	-11.5041
结冰	-11.5041
摆脱	-11.5042
举止	-11.5042
于己	-11.5042
分辩	-11.5042
短短	-11.5042
擒拿法	-11.5042
妇女	-11.5042
依次	-11.5042
月余	-11.5042
狗贼	-11.5042
球体	-11.5042
流星	-11.5042
第二次	-11.5043
冬天	-11.5043
议和	-11.5043
混合	-11.5043
小师妹	-11.5043
破烂	-11.5043
金属	-11.5043
小半个时辰	-11.5043
白胡子	-11.5043
循	-11.5043
中指峰	-11.5043
尤为	-11.5043
众军士	-11.5044
义结	-11.5044
物种	-11.5044
雾中	-11.5044
的意见	-11.5044
自己的身体	-11.5044
魁	-11.5044
便如是	-11.5044
玉盘	-11.5045
赞叹	-11.5045
足印	-11.5045
为僧	-11.5045
追不上	-11.5045
摔在地下	-11.5045
走了进来	-11.5045
金星	-11.5045
眉梢	-11.5045
主要是因为	-11.5045
面临	-11.5046
门大开	-11.5046
因果	-11.5046
十余名	-11.5046
十多个	-11.5047
塘中	-11.5047
万万不能	-11.5047
爽快	-11.5047
皮肉	-11.5047
恶毒	-11.5047
布阵	-11.5047
槐树	-11.5047
醉仙楼头	-11.5047
均感	-11.5048
辨别	-11.5048
无效	-11.5048
差异	-11.5048
离座	-11.5048
洪七公呵呵	-11.5048
不悦	-11.5048
饭碗	-11.5048
透明	-11.5048
衣角	-11.5048
伏在地下	-11.5048
门下弟子	-11.5049
寺里	-11.5049
斜刺	-11.5049
期待	-11.5049
在宝应	-11.5049
亲切	-11.5049
捧起	-11.505
助战	-11.505
沉猛	-11.505
打手势	-11.505
混战	-11.505
远不如	-11.505
侧击	-11.505
必致	-11.505
船首	-11.505
豪气	-11.5051
手刃	-11.5051
保全	-11.5051
宽带	-11.5051
花样	-11.5051
飘动	-11.5051
到哪里去啦	-11.5051
结交	-11.5051
关怀	-11.5052
桌旁	-11.5052
十多天	-11.5052
若凭	-11.5052
与否	-11.5052
老先生	-11.5052
秀发	-11.5052
那幅画	-11.5053
低微	-11.5053
分裂	-11.5053
挂念着	-11.5053
翔	-11.5053
管理	-11.5054
脸皮	-11.5054
那丫头	-11.5054
指望	-11.5054
吓得魂飞魄散	-11.5054
押着	-11.5054
室内	-11.5054
挺刀	-11.5055
相谢	-11.5055
蒲团上	-11.5055
铁木真汗	-11.5055
挥拳	-11.5056
...	-11.5056
垂头	-11.5056
鞭法	-11.5056
热血上	-11.5057
轻灵	-11.5057
刚硬	-11.5057
金主	-11.5057
长袖	-11.5057
稍稍	-11.5057
依法	-11.5057
知道不妙	-11.5058
两排	-11.5058
熟练	-11.5058
这个故事	-11.5058
口鼻	-11.5058
交通	-11.5059
并不会因为	-11.5059
变聪明	-11.5059
眼角	-11.5059
小弟弟	-11.506
长官	-11.506
了一圈	-11.506
只觉全身	-11.5061
恨极	-11.5061
之辱	-11.5061
小石子	-11.5062
酒碗	-11.5062
无幸	-11.5062
高宗	-11.5062
超过	-11.5062
挡不住	-11.5062
缚着	-11.5062
哪里还能	-11.5063
所制	-11.5063
左拳	-11.5063
小店	-11.5064
着恼	-11.5064
上前动手	-11.5064
低下头来	-11.5064
礼法	-11.5064
转换	-11.5064
扭打	-11.5065
实体	-11.5065
橱中	-11.5065
诚心	-11.5066
药方	-11.5066
哪里来的	-11.5066
越想越是	-11.5066
躲在这里	-11.5066
黄帮主	-11.5066
风雪	-11.5067
携着	-11.5067
身周	-11.5067
不论如何	-11.5067
怪鱼	-11.5067
不久就	-11.5068
由此而	-11.5068
焦木和尚	-11.5068
想起母亲	-11.5068
动武	-11.5069
吹动	-11.5069
同归	-11.5069
观点	-11.5069
小猫	-11.507
行径	-11.507
说着哈哈大笑	-11.5071
偏生	-11.5071
口味	-11.5072
身子略	-11.5073
专心	-11.5073
卷起	-11.5074
大臣	-11.5075
吸入	-11.5075
花木	-11.5075
识别	-11.5075
放脱	-11.5075
上刻着	-11.5075
求救	-11.5075
女孩子	-11.5076
大爷	-11.5076
为了要	-11.5076
安身	-11.5077
作主	-11.5077
求情	-11.5078
忽感	-11.5078
白云	-11.5078
这几位	-11.5079
托着	-11.5079
传了给	-11.5079
所害	-11.508
一个筋斗翻	-11.508
伤愈	-11.5081
背书	-11.5081
有甚么用	-11.5082
性命难保	-11.5082
沙通天等人	-11.5083
镬中	-11.5083
与金人	-11.5083
两者之间没有直接	-11.5083
拜倒	-11.5084
追求	-11.5084
大嚼	-11.5084
下毒手	-11.5084
掌势	-11.5084
有多大	-11.5084
下堕	-11.5085
参见	-11.5085
全黑	-11.5085
行功	-11.5085
毁去	-11.5085
而不是指	-11.5085
更新	-11.5086
塞子	-11.5086
你的父母	-11.5086
这股	-11.5086
头也不回的	-11.5087
之象	-11.5087
有要事	-11.5087
无益	-11.5087
统兵	-11.5087
派了	-11.5088
感觉到	-11.5088
诸子	-11.5088
识破	-11.5088
船舱中	-11.5089
跳起	-11.5089
脱口	-11.5089
不见人影	-11.509
长时间	-11.509
自保	-11.509
连施	-11.509
六兄弟	-11.5092
剑光	-11.5092
椅上	-11.5092
只看得	-11.5093
黎生等	-11.5093
费用	-11.5094
爱情	-11.5094
未觉	-11.5094
三夜	-11.5095
毒发	-11.5096
太重	-11.5096
尽情	-11.5096
强劲	-11.5096
脚踢	-11.5096
黄蓉接口	-11.5097
化开	-11.5097
这两掌	-11.5097
都是一样	-11.5098
打游戏	-11.5098
扬手	-11.5098
观战	-11.5099
运用	-11.5099
别哭	-11.5099
寒气	-11.5099
也早	-11.5099
忽忽	-11.5099
船边	-11.51
忽地想起	-11.5101
开国	-11.5101
学不到	-11.5102
尚能	-11.5102
插手	-11.5102
斗不过	-11.5103
可乐	-11.5103
落脚	-11.5104
本待	-11.5104
大鸟	-11.5104
嵌在	-11.5104
跨上	-11.5104
夜里	-11.5105
楼头	-11.5105
落下时	-11.5106
你的女朋友	-11.5107
已抵	-11.5107
终于还是	-11.5108
望着自己	-11.5109
人们会	-11.5109
迷迷糊糊的	-11.5109
轰轰	-11.5109
十多年来	-11.5109
打滚	-11.5109
在何处	-11.511
瞧得起	-11.5111
我永远	-11.5112
这并不是一个	-11.5112
乱转	-11.5112
直取	-11.5112
彭连虎等人	-11.5112
也不致	-11.5113
也可能是	-11.5114
人丛	-11.5115
旧事	-11.5115
这一掷	-11.5116
女弟子	-11.5116
蛇声	-11.5117
拥有	-11.5117
太高	-11.5117
下树	-11.5118
被逼	-11.5118
甚急	-11.512
平生	-11.5121
还没死	-11.5121
四女	-11.5122
之顶	-11.5122
使一招	-11.5122
的感觉	-11.5122
骨折	-11.5123
供桌	-11.5123
缠住了	-11.5125
映照	-11.5125
回夺	-11.5126
每当	-11.5127
快给我	-11.5127
那也不用	-11.5128
个响头	-11.5129
是否能	-11.513
这一剑	-11.513
满天	-11.513
直立	-11.513
相爱	-11.513
八成	-11.5132
两船	-11.5132
白日	-11.5132
郭靖安答	-11.5133
后队	-11.5133
小径	-11.5134
涌到	-11.5135
无法实现	-11.5135
在草原上	-11.5137
如铁	-11.5138
相近	-11.5138
都不知道	-11.5138
不敢再说	-11.5138
一斤	-11.5139
探出	-11.5139
所坐	-11.5139
这一脚	-11.514
驰去	-11.5142
为善	-11.5142
乱动	-11.5143
俯身拾起	-11.5146
流水	-11.5146
脚力	-11.5146
周到	-11.5148
头骨	-11.5148
有时候	-11.5148
扑出	-11.5149
那大汉	-11.515
连接	-11.515
的道儿	-11.515
倒翻	-11.515
捏住	-11.5152
我几时	-11.5152
相待	-11.5153
到此	-11.5153
原来是个	-11.5154
比赛中	-11.5156
这样罢	-11.5158
?’”	-11.5159
成本	-11.516
无望	-11.516
地势	-11.5161
条血痕	-11.5161
好香	-11.5161
悬崖上	-11.5162
献给	-11.5162
来判断	-11.5164
多言	-11.5168
一绊	-11.5168
六师父	-11.5169
这棒法	-11.5171
拉起	-11.5171
谁胜	-11.5171
长长的	-11.5172
已颇	-11.5173
高飞	-11.5173
几口气	-11.5173
原可	-11.5176
凭你这	-11.5177
服药	-11.5178
照得	-11.5178
的锦旗	-11.5178
的长度	-11.5178
葬了	-11.5179
高招	-11.5179
指戳	-11.5181
发怒	-11.5182
不让他	-11.5183
塞住	-11.5183
扫去	-11.5188
且莫	-11.5189
遵守	-11.5193
回报	-11.5195
与江南七怪	-11.5195
实无	-11.5196
忽想	-11.5196
极力	-11.5198
被缚	-11.52
庄上	-11.52
只感到	-11.5201
和理解	-11.5203
杀气	-11.5207
长大了	-11.5208
不必再	-11.5208
偷了	-11.5209
打拳	-11.521
一根根	-11.521
铁铸的	-11.5214
言之	-11.5215
见闻	-11.5217
给我吃	-11.5218
”(	-11.5218
在这种情况	-11.522
侯通海怒	-11.5221
不假	-11.5223
之感	-11.5223
的关键	-11.5224
这奸贼	-11.5224
毙了	-11.5224
做事	-11.5225
的情形	-11.5225
连日	-11.5226
所杀	-11.5227
别处	-11.5228
和其他	-11.5228
出门去	-11.5228
我可要	-11.5233
甚么事都	-11.5233
▁那女人	-11.5234
抓出	-11.5234
只见前面	-11.5237
总之	-11.5238
一丝	-11.5239
睡去	-11.5241
一倍	-11.5243
桌面	-11.5243
那当然	-11.5244
出兵	-11.5245
是降龙十八掌中	-11.5245
一试	-11.5245
我瞧你	-11.5245
的婆娘	-11.5246
几根	-11.5247
还了一	-11.5247
莫说	-11.5247
▁等到	-11.5248
来帮助	-11.525
动力	-11.5253
养大	-11.526
学到了	-11.5261
自己身子	-11.5261
无妨	-11.5262
与金兵	-11.5262
在北京	-11.5263
握住她	-11.5266
条青蛇	-11.5267
一截	-11.5268
满脸是	-11.5274
这并不是因为	-11.5274
如神	-11.5276
夜行	-11.5284
合适的	-11.5284
显见	-11.5287
在郭靖身上	-11.5288
打起	-11.529
带上	-11.529
却也不能	-11.5296
板橱	-11.5296
上船来	-11.5296
击打	-11.5297
吃完了	-11.5297
安睡	-11.5299
心中不禁	-11.5303
不差	-11.531
一起去	-11.5314
这一手	-11.5314
谁能	-11.5314
人性	-11.5318
仰头	-11.5324
分头	-11.5325
直如	-11.5325
的拳头	-11.5326
可能会有	-11.5327
传递	-11.5328
纵有	-11.5329
是否有	-11.5332
唱曲	-11.5334
开水	-11.5334
来改变	-11.5338
一个字	-11.534
用强	-11.5343
防他	-11.5344
手劲	-11.5345
在水里	-11.5346
流浪	-11.5352
胜过了	-11.5353
冲下	-11.5354
花瓣	-11.5354
不能伤	-11.5356
几只	-11.5357
刚到	-11.536
跟我来	-11.5365
硬要	-11.5373
想念	-11.5373
在胸前	-11.5382
倏地飞	-11.5382
低下头	-11.5382
跌在	-11.5385
事已	-11.5385
她与郭靖	-11.5385
不清	-11.5387
天生	-11.5388
那自然	-11.5388
我这样	-11.5389
下午	-11.5389
齐施	-11.5389
▁郭靖听到	-11.5389
打伤了	-11.5391
▁彭连虎等	-11.5393
不公平	-11.5394
▁这是因为在	-11.5394
两天	-11.5395
那主人	-11.5396
未受伤	-11.5398
恩德	-11.54
叫一声	-11.5402
有一次	-11.5403
实不知	-11.5407
约了	-11.5407
鬼计	-11.5408
都是一惊	-11.5411
与梁子翁	-11.5412
已定	-11.5416
▁请问	-11.5417
都需要	-11.542
就能将	-11.5421
时钟	-11.5421
你到底	-11.5423
酒店	-11.5424
无地	-11.5425
砍下	-11.5428
你师妹	-11.5433
你要杀	-11.5445
陪他	-11.5445
第五	-11.5446
很有	-11.5447
捉来	-11.5447
有变	-11.5449
放出	-11.545
说一句	-11.5452
的特性	-11.5453
神色甚是	-11.5457
▁郭靖见她	-11.5462
的动静	-11.5463
▁黄蓉低声	-11.5465
药粉	-11.5476
在旁边	-11.548
是虚构的	-11.5481
从事	-11.5481
和江南六怪	-11.5484
饿得	-11.5489
四川	-11.5489
这山峰	-11.55
通常是指	-11.5502
也不算	-11.5503
如果你对	-11.5506
为生	-11.5508
an	-11.5509
心中都是	-11.551
船底	-11.5512
自然不会	-11.5512
收起	-11.5513
那真是	-11.5515
被咬	-11.5518
芳	-11.5519
回去罢	-11.5519
▁就在	-11.5522
下风	-11.5523
不清楚	-11.5525
雕背	-11.553
如果没有	-11.5533
得厉害	-11.5534
一盘	-11.5537
大骂	-11.5543
梢	-11.5543
取下	-11.5546
已不见	-11.5548
着一根	-11.5548
名称	-11.5549
为怀	-11.5549
▁小明	-11.5549
既与	-11.5552
跨出	-11.5553
发现了	-11.5564
一脸	-11.5572
踢得	-11.5577
交流电	-11.5578
下崖	-11.5585
南湖	-11.5585
却见郭靖	-11.5589
一腿	-11.559
自己手腕	-11.5597
两个少年	-11.56
得死	-11.5602
可以直接	-11.561
小屋	-11.5617
见二人	-11.5625
将竹杖	-11.5625
候在	-11.5634
死时	-11.5641
只有一个	-11.5652
相关	-11.5654
我跟他	-11.5657
不相同	-11.566
颇不	-11.5667
五百	-11.567
几遍	-11.5673
花剌子模军	-11.5682
这些都是	-11.5689
给了他	-11.5691
一送	-11.5696
几口	-11.5705
发喊	-11.5706
双掌齐	-11.5707
不理他	-11.5719
黄蓉和郭靖	-11.5726
深陷	-11.5735
一交跌	-11.5737
盘膝坐	-11.574
我见了	-11.5747
起手来	-11.575
一通	-11.5751
来寻仇	-11.5751
个蛋	-11.5751
遵从	-11.5754
ne	-11.5762
也想不出	-11.577
的内容	-11.5778
郭靖知她	-11.578
传过	-11.5789
明真相	-11.5795
出林	-11.5814
快些	-11.5815
这一阵	-11.5815
怎么没	-11.5818
敢来	-11.5818
但终究	-11.5819
寻到	-11.582
借给	-11.582
十天	-11.582
你可以选择	-11.583
围绕	-11.5832
几套	-11.5834
追杀	-11.5835
变得更	-11.5839
不透	-11.5849
▁郭靖忙	-11.5863
翻出	-11.5874
是一部	-11.588
不成啦	-11.588
掘了	-11.5881
智计	-11.5883
进房	-11.5889
真经上	-11.589
觉奇怪	-11.5894
只是个	-11.5907
生平最	-11.5908
的感受	-11.5909
气极	-11.5916
肯定	-11.5919
害你	-11.5919
缰绳	-11.5919
的语气	-11.5919
管他	-11.5924
到一半	-11.5925
所伤	-11.5928
妨	-11.5934
听听	-11.5938
他左臂	-11.5953
托大	-11.5953
到江南	-11.5954
了五六	-11.5972
确有	-11.5988
跳跃	-11.5994
幸好他	-11.6
人情	-11.6004
不久便	-11.6005
无虚	-11.6007
的思想	-11.6012
掌力震	-11.6014
件件	-11.6014
武学中	-11.602
喷出	-11.6028
得目瞪口呆	-11.6034
没听见	-11.6034
托了	-11.6039
大叫起来	-11.6045
原来是你	-11.6052
一说	-11.6056
数百名	-11.6064
黄药师微微一笑	-11.6069
15	-11.6084
她头发	-11.609
先把	-11.6096
只觉得	-11.6101
露了	-11.6103
雨水	-11.6111
弟子不敢	-11.612
中掌	-11.6129
较之	-11.6131
的好手	-11.6151
的称呼	-11.6157
显露	-11.6165
直奔	-11.6166
没听到	-11.6168
十五年	-11.6176
向海	-11.6179
洪七公怒	-11.618
死在这里	-11.6183
心中又是	-11.6185
地步	-11.6203
不屈	-11.6214
也逃不	-11.6217
也知	-11.6217
神态甚是	-11.6219
大红	-11.622
十七八	-11.6221
迟到	-11.6227
重量	-11.6229
此时已	-11.623
一拱	-11.6231
特性	-11.6233
叫声中	-11.6234
入水	-11.6235
曾得	-11.6236
很高	-11.624
猛见	-11.6253
甚有	-11.6272
年老	-11.6277
在风中	-11.6278
腿骨	-11.629
相撞	-11.6291
武林中人	-11.6294
一条鲨鱼	-11.6298
必会	-11.6301
无丝毫	-11.6305
之毒	-11.6315
白须	-11.6316
一划	-11.6317
正是欧阳锋	-11.6335
百里	-11.6341
不能动	-11.6346
竟如此	-11.635
子弟	-11.6351
人的头	-11.6359
即日	-11.6367
那你就	-11.6368
收入	-11.6373
听黄蓉说	-11.6378
不能说	-11.638
好呀	-11.6383
亲亲	-11.6384
逃不了	-11.6387
瞧清楚	-11.6388
挥刀	-11.6391
一扭	-11.6393
几件	-11.6397
不是我的	-11.64
差了	-11.6404
了几年	-11.6414
的消息	-11.6417
铁掌水上飘	-11.6419
过一会	-11.6424
找到一个	-11.6427
指甲	-11.6427
呼声	-11.6428
是好人	-11.6441
江边	-11.6444
楞	-11.6445
并肩坐在	-11.6446
在人世	-11.6458
不会武功	-11.6463
天马	-11.6464
盘膝坐在地	-11.6464
▁那为什么	-11.6466
最快	-11.647
店门	-11.6474
这碗	-11.6476
过了一盏茶	-11.6481
下沉	-11.6482
发电	-11.6485
生活习惯	-11.6487
喧哗	-11.6489
击到	-11.6492
紧握	-11.6495
这么好	-11.6501
望望	-11.6503
后园	-11.6506
肿起	-11.6515
痕迹	-11.6521
从今	-11.6525
一柄匕首	-11.6531
就死了	-11.6534
姓郭的小子	-11.6536
幸而	-11.6536
围在	-11.6538
足踢	-11.654
使奸	-11.6545
再找	-11.6546
全神贯注	-11.6548
掌柜	-11.655
闪闪发光	-11.6556
亦无	-11.6557
双飞	-11.6557
传来一阵	-11.6558
得久	-11.6563
上屋顶	-11.6564
伸到	-11.6564
大枪	-11.6569
怒之下	-11.6572
败在	-11.6582
困境	-11.6585
之劲	-11.6587
乐声	-11.6589
没有得到	-11.6596
谁教	-11.6596
朱红	-11.6596
女娃娃	-11.6599
喝骂	-11.66
用的是	-11.6601
喝止	-11.6609
绝艺	-11.6612
去学	-11.6613
求婚	-11.6613
▁这天	-11.6616
不由得惊	-11.6617
壶	-11.6622
谎	-11.6625
无限	-11.6633
被视为	-11.6636
开船	-11.6638
镬	-11.664
难决	-11.6645
怠	-11.6653
越想越	-11.6654
瞧不起	-11.6655
没听见过	-11.6656
睛	-11.6657
麻痒	-11.6657
棺	-11.666
无敌	-11.6662
幽默	-11.6666
未知	-11.6671
深谷	-11.6672
的生理	-11.6672
艾滋病	-11.6674
单纯	-11.6674
循环	-11.6675
禅院	-11.6676
乃蛮	-11.6676
值	-11.6677
老仆	-11.6679
那使单刀的	-11.6679
听人说	-11.668
小酒店	-11.668
哇	-11.668
纷飞	-11.6682
的独门	-11.6683
清晨	-11.6685
相抗	-11.6685
药品	-11.6685
得粉碎	-11.6687
训	-11.6687
颊	-11.6687
恳	-11.6687
觑	-11.6688
兀	-11.6688
闺	-11.6688
师父是谁	-11.6689
盐	-11.6689
钦	-11.6689
枢	-11.669
骑兵	-11.669
求之不得	-11.669
况	-11.669
谓	-11.6691
消耗	-11.6691
桅	-11.6691
恁	-11.6691
屋子里	-11.6691
篙	-11.6691
林子	-11.6691
是违法的	-11.6692
骇然	-11.6692
俨然	-11.6692
觅	-11.6693
脊	-11.6693
肴	-11.6693
筵	-11.6693
帅	-11.6693
淘	-11.6693
摘	-11.6693
勃	-11.6693
饰	-11.6693
季	-11.6694
镖	-11.6694
嗤	-11.6694
襟	-11.6694
斡难河	-11.6694
挫	-11.6694
心花怒放	-11.6694
范围	-11.6694
晴	-11.6694
侮	-11.6694
媒	-11.6695
泳	-11.6695
钧	-11.6695
各种各样	-11.6695
央	-11.6695
海绵体	-11.6695
山中老人	-11.6695
舒适	-11.6695
排泄	-11.6695
心中焦急	-11.6695
忒	-11.6695
肋	-11.6695
钙	-11.6695
顽	-11.6695
个窟窿	-11.6695
蜂	-11.6695
肌	-11.6695
俊	-11.6695
十夫长	-11.6695
殉	-11.6695
千千万万	-11.6695
密密麻麻	-11.6695
一语不发	-11.6695
根柢	-11.6695
橘	-11.6695
滨	-11.6695
膊	-11.6695
宛然	-11.6695
侍奉	-11.6695
忍耐	-11.6695
库	-11.6695
匪夷所思	-11.6695
腹中饥饿	-11.6695
是非常危险的	-11.6695
碌	-11.6696
靴	-11.6696
词汇	-11.6696
垂头丧气	-11.6696
驯	-11.6696
鬼灵精	-11.6696
宏	-11.6696
摩	-11.6696
▁睡到	-11.6696
少说也有	-11.6696
蜜蜂	-11.6696
一前一后	-11.6696
依速甘	-11.6696
仓	-11.6696
蔽	-11.6696
潮水涨时	-11.6696
哗	-11.6696
蹦	-11.6696
爽爽快快	-11.6696
纳牙阿	-11.6696
孙悟空	-11.6696
独个儿	-11.6696
熊	-11.6696
蟹	-11.6696
高姓大名	-11.6696
叮	-11.6696
鉴	-11.6696
南山樵子南希仁	-11.6696
晃亮火折	-11.6696
趟	-11.6696
J	-11.6696
医保卡	-11.6696
糟老头子	-11.6696
一股大力	-11.6696
歧	-11.6696
晃了几晃	-11.6696
该是不该	-11.6696
拧	-11.6696
精湛	-11.6696
戮	-11.6696
支颐	-11.6696
逍遥拳	-11.6696
非死即伤	-11.6696
饺	-11.6696
驸马	-11.6696
眼药水	-11.6696
洲	-11.6696
诺贝尔奖	-11.6696
防不胜防	-11.6696
得漂亮	-11.6696
华莱士	-11.6696
一条明路	-11.6696
大叫大嚷	-11.6696
每个人都有自己的	-11.6696
王老吉	-11.6696
蒙力克	-11.6696
在陆地上	-11.6696
一艘小艇	-11.6696
睁大了	-11.6696
端倪	-11.6696
kg	-11.6696
是无生命的	-11.6696
慈悲为怀	-11.6696
塔塔儿部	-11.6696
契	-11.6696
弹指神通	-11.6696
毫不费力的	-11.6696
涵	-11.6696
维持生命	-11.6696
吸血鬼	-11.6696
千手观音	-11.6696
那青衣怪客	-11.6696
锥	-11.6696
摸不着头脑	-11.6696
沉着脸	-11.6696
瑰	-11.6696
男子汉大丈夫	-11.6696
耶	-11.6696
此仇	-11.6696
加入战团	-11.6696
峡	-11.6696
拼	-11.6696
绝伦	-11.6696
左右互搏	-11.6696
钠	-11.6696
动过手	-11.6696
惟恐	-11.6696
指了指	-11.6696
搠	-11.6696
窒息	-11.6696
翻翻滚滚	-11.6696
豪迈	-11.6696
狂妄	-11.6696
『	-11.6696
友谊	-11.6696
憾	-11.6696
眉大眼	-11.6696
鹅	-11.6696
沮丧	-11.6696
遥遥	-11.6697
匠	-11.6697
平白无端的	-11.6697
王公大将	-11.6697
缺乏	-11.6697
罪该万死	-11.6697
靥	-11.6697
颠三倒四	-11.6697
馋涎	-11.6697
相顾愕然	-11.6697
满脸怒容	-11.6697
一招半式	-11.6697
到此地步	-11.6697
完颜洪烈那奸贼	-11.6697
打成平手	-11.6697
混淆	-11.6697
玑	-11.6697
豁出了性命	-11.6697
避一避	-11.6697
静夜之中	-11.6697
in	-11.6697
聋哑	-11.6697
一口浓痰	-11.6697
咭咭咯咯	-11.6697
哪里还来得及	-11.6697
太阳能电池	-11.6697
庆祝	-11.6697
酱	-11.6697
昏晕	-11.6697
肚脐	-11.6697
别勒古台	-11.6697
失烈门	-11.6697
李广利	-11.6697
歼灭	-11.6697
秤锤	-11.6697
贼厮鸟	-11.6697
青衣童子	-11.6697
鼎	-11.6697
奕	-11.6697
清净散人孙不二	-11.6697
呛啷一	-11.6697
宅	-11.6697
愚蠢	-11.6697
没来由的	-11.6697
百来斤	-11.6697
贡献	-11.6697
这番邦女子	-11.6697
有死无生	-11.6697
服务员	-11.6697
君臣	-11.6697
如死灰	-11.6697
慈祥	-11.6697
拉着黄蓉的手	-11.6697
标识	-11.6697
直娘贼	-11.6697
相差太远	-11.6697
足不停步的	-11.6697
憋	-11.6697
我也不知道啊	-11.6697
奶茶	-11.6697
同性恋	-11.6697
臼	-11.6697
五个指孔	-11.6697
印痕	-11.6697
在这荒岛之上	-11.6697
居高临下	-11.6697
庇	-11.6697
杨再兴	-11.6697
殆	-11.6697
沅江	-11.6697
纷至沓来	-11.6697
蜡丸	-11.6697
蝶	-11.6697
伍	-11.6697
竿	-11.6697
两头猎豹	-11.6697
凄厉	-11.6697
的途径	-11.6697
赋	-11.6697
骑在马上	-11.6697
剖	-11.6697
吓得魂不附体	-11.6697
六位恩师	-11.6697
胆战心惊	-11.6697
虞	-11.6697
帮规	-11.6697
质朴	-11.6697
银行卡	-11.6697
八个女子	-11.6697
家破人亡	-11.6697
氧化	-11.6697
矛盾	-11.6697
蹊	-11.6697
饥	-11.6697
无意间	-11.6697
暮	-11.6697
阿里不哥	-11.6697
一拥而上	-11.6697
义父王罕	-11.6697
从怀里掏出	-11.6697
作了一揖	-11.6697
冲锋陷阵	-11.6697
华山二次论剑	-11.6697
在网络上	-11.6697
带在身边	-11.6697
手下容情	-11.6697
绑缚	-11.6697
野狐	-11.6697
刁钻古怪	-11.6697
别来无恙	-11.6697
支付宝	-11.6697
监禁	-11.6697
笃	-11.6697
磁铁	-11.6697
了很久	-11.6697
两全其美	-11.6697
啰唣	-11.6697
砂	-11.6697
竹帘	-11.6697
莫图根	-11.6697
众小孩	-11.6697
一败涂地	-11.6697
侍候	-11.6697
天涯海角	-11.6697
奇门五行	-11.6697
热辣辣的	-11.6697
熙	-11.6697
食盐	-11.6697
其他星球	-11.6697
到了极处	-11.6697
岂有此理	-11.6697
投资	-11.6697
玉棺	-11.6697
金创药	-11.6697
麻烦	-11.6697
江南五怪	-11.6697
炫	-11.6697
捣甚么鬼	-11.6697
炊	-11.6697
猱身	-11.6697
背叛师门	-11.6697
躺在床上	-11.6697
防范	-11.6697
殷	-11.6697
菜篮	-11.6697
左右互搏之术	-11.6697
左胯	-11.6697
档	-11.6697
盏油灯	-11.6697
清明节	-11.6698
世纪	-11.6698
哎	-11.6698
猜想不透	-11.6698
目睹	-11.6698
屡	-11.6698
恭敬	-11.6698
氢气	-11.6698
裘铁掌	-11.6698
那贼子	-11.6698
称之为	-11.6698
抄袭	-11.6698
锭银子	-11.6698
亲眼所见	-11.6698
赏赐	-11.6698
僻静	-11.6698
手足酸软	-11.6698
瘦丐	-11.6698
虹	-11.6698
内功精湛	-11.6698
惹恼了	-11.6698
愚公	-11.6698
愤恨	-11.6698
野兔	-11.6698
僵持	-11.6698
浇	-11.6698
拒绝	-11.6698
瑶	-11.6698
上前夹攻	-11.6698
书生与农夫	-11.6698
吮吸	-11.6698
杨相公	-11.6698
蹬	-11.6698
那黄裳	-11.6698
配得上	-11.6698
全身冷汗	-11.6698
无意之中	-11.6698
具骸骨	-11.6698
功力大进	-11.6698
吴青烈	-11.6698
张大了口	-11.6698
技艺	-11.6698
瞧在眼里	-11.6698
膜拜	-11.6698
饲养	-11.6698
午夜	-11.6698
心中大慰	-11.6698
球员	-11.6698
瓷	-11.6698
壮健	-11.6698
珍贵	-11.6698
岛主	-11.6698
点中了穴道	-11.6698
表演	-11.6698
长子朮赤	-11.6698
夸奖	-11.6698
手忙脚乱	-11.6698
那还了得	-11.6698
姓黄	-11.6698
充电宝	-11.6698
爷儿俩	-11.6698
19	-11.6698
以二敌一	-11.6698
跟随在后	-11.6698
比武之约	-11.6698
一件件的	-11.6698
偶然	-11.6698
垂泪	-11.6698
火焰	-11.6698
腐烂	-11.6698
那句话	-11.6698
抽筋	-11.6698
开开眼界	-11.6698
仰天大笑	-11.6698
奇珍异宝	-11.6698
惕	-11.6698
莫测	-11.6698
振翅	-11.6699
捺	-11.6699
绿竹杖	-11.6699
酸楚	-11.6699
牧民	-11.6699
千手人屠彭连虎	-11.6699
原委	-11.6699
情势紧迫	-11.6699
更无半点	-11.6699
预防	-11.6699
5.	-11.6699
肚腹	-11.6699
起了疑心	-11.6699
鹿	-11.6699
奉承	-11.6699
怨仇	-11.6699
踏上两步	-11.6699
姿态	-11.6699
赔罪	-11.6699
广告	-11.6699
身躯	-11.6699
亲兵队长	-11.6699
宁静	-11.6699
做兄弟的	-11.6699
怒不可抑	-11.6699
天色渐	-11.6699
假扮	-11.6699
眷	-11.6699
姓穆	-11.6699
含泪	-11.6699
漆黑	-11.6699
纷纷跌落	-11.6699
芦管	-11.6699
多管闲事	-11.6699
中秋节	-11.6699
危害	-11.6699
横行天下	-11.6699
酒壶	-11.6699
升华	-11.6699
段智兴	-11.6699
结为兄弟	-11.6699
自己身世	-11.6699
抢步上前	-11.6699
谎言	-11.6699
为了何事	-11.6699
f	-11.6699
脑筋	-11.6699
谁啊	-11.6699
碧绿	-11.6699
的秘要	-11.6699
交迸	-11.6699
劝阻	-11.6699
的命名	-11.6699
恐龙	-11.67
常规	-11.67
父皇	-11.67
宛若	-11.67
苍苍	-11.67
登时醒悟	-11.67
机警	-11.67
的拳路	-11.67
驱赶	-11.67
壮汉	-11.67
汗珠	-11.67
奸徒	-11.67
猛然间	-11.67
两股	-11.67
俯首	-11.67
而逝	-11.67
整整	-11.67
凄苦	-11.67
得通红	-11.67
钱财	-11.67
自忖	-11.67
座位	-11.67
宫卫	-11.67
详加	-11.67
弘	-11.67
没出息	-11.67
梅前辈	-11.67
屋瓦	-11.67
粗鲁	-11.67
鞑子	-11.67
监狱里	-11.67
的精要	-11.67
歌舞	-11.67
百忙中	-11.6701
新婚	-11.6701
商品	-11.6701
锦衣	-11.6701
包抄	-11.6701
何尝	-11.6701
铁蹄	-11.6701
木料	-11.6701
哀求	-11.6701
蓝色	-11.6701
冲锋	-11.6701
臭虫	-11.6701
到悬崖之下	-11.6701
剑锋	-11.6701
世界杯	-11.6701
不需要担心	-11.6701
满拟	-11.6701
低头避过	-11.6701
的处所	-11.6701
临死之时	-11.6701
激荡	-11.6701
窗格	-11.6701
转身便逃	-11.6701
鲁大哥	-11.6701
黎明	-11.6701
值得	-11.6701
侧身避开	-11.6701
狗屁	-11.6701
一般见识	-11.6702
拦腰	-11.6702
客户	-11.6702
丘师兄	-11.6702
渡江	-11.6702
沉吟不语	-11.6702
求医	-11.6702
耗损	-11.6702
心下琢磨	-11.6702
灵魂	-11.6702
帆索	-11.6702
木棍	-11.6702
毒针环	-11.6702
再也支持不住	-11.6702
拿在手中	-11.6702
配不上	-11.6702
田七	-11.6702
网线	-11.6702
悔改	-11.6702
四味药	-11.6702
双手合十	-11.6702
精纯	-11.6702
冷淡	-11.6702
火灾	-11.6702
六位	-11.6702
克星	-11.6702
酒驾	-11.6702
恃强	-11.6703
没听说过	-11.6703
采取	-11.6703
纵横天下	-11.6703
一名亲兵	-11.6703
望着天边	-11.6703
歌曲	-11.6703
熟习	-11.6703
这套掌法	-11.6703
扬帆	-11.6703
猛兽	-11.6703
完整	-11.6703
硬拚	-11.6703
温软	-11.6703
这种方法	-11.6703
沙堆	-11.6703
史记	-11.6703
看得清清楚楚	-11.6703
形迹	-11.6703
结识	-11.6704
跟踪	-11.6704
长藤	-11.6704
惧怕	-11.6704
昔年	-11.6704
试图	-11.6704
唇边	-11.6704
卫兵	-11.6704
离岸	-11.6704
臭贼	-11.6704
南宋	-11.6704
高宗皇帝	-11.6704
腹部	-11.6704
自然界	-11.6704
花朵	-11.6704
杖尾	-11.6704
钟爱	-11.6704
此番	-11.6704
认错	-11.6704
有很大的	-11.6704
稍减	-11.6704
十余丈外	-11.6704
干嘛	-11.6704
屋顶上	-11.6705
牛鼻子	-11.6705
个平手	-11.6705
顾念	-11.6705
是我杀的	-11.6705
柔弱	-11.6705
两条腿	-11.6705
预言	-11.6705
奴才	-11.6705
幼女	-11.6705
木桨	-11.6705
积雪	-11.6705
向郭靖一指	-11.6706
妙手书生朱聪	-11.6706
真有你的	-11.6706
羊毛	-11.6706
全仗	-11.6706
龙吟	-11.6706
历代	-11.6706
个痛快	-11.6706
缓慢	-11.6706
克服	-11.6706
可能含有	-11.6706
闪躲	-11.6706
马鞍	-11.6706
打岔	-11.6706
缘由	-11.6706
外婆	-11.6706
依照	-11.6706
讨饭	-11.6706
改善	-11.6706
武士	-11.6706
宽怀	-11.6706
听在耳	-11.6706
内功秘诀	-11.6706
冰块	-11.6706
沉稳	-11.6706
消除	-11.6707
不下去了	-11.6707
理智	-11.6707
站在门口	-11.6707
麻木	-11.6707
二百三十	-11.6707
交互	-11.6707
建造	-11.6707
想见见	-11.6707
脚程	-11.6707
密度	-11.6707
统军	-11.6707
一件大事	-11.6707
图片	-11.6708
躲闪	-11.6708
敲击	-11.6708
牵引	-11.6708
霎时	-11.6708
终须	-11.6708
开口说话	-11.6708
代谢	-11.6708
推究	-11.6708
精神病	-11.6708
嗯了一声	-11.6708
拔了出来	-11.6708
追捕	-11.6708
请勿	-11.6708
桃花岛黄岛主	-11.6708
香菜	-11.6708
剧斗	-11.6708
焉能	-11.6708
羊肉	-11.6708
入侵	-11.6708
已自不及	-11.6709
天资	-11.6709
两亿	-11.6709
师徒二人	-11.6709
波斯	-11.6709
箭杆	-11.6709
故土	-11.6709
难逢	-11.6709
火候	-11.6709
四王子	-11.6709
一门功夫	-11.671
世俗	-11.671
棺材里	-11.671
擅自	-11.671
甚广	-11.671
报复	-11.671
宴会	-11.671
曲调	-11.671
摆布	-11.671
侧目	-11.671
止步	-11.671
治好了	-11.671
归座	-11.6711
这就是为什么	-11.6711
昂头	-11.6711
小僧	-11.6711
布片	-11.6711
俱各	-11.6711
当先一人	-11.6711
心中思潮起伏	-11.6711
口唇	-11.6711
万状	-11.6711
并不答话	-11.6711
挥舞	-11.6711
高手比武	-11.6711
金印	-11.6711
决计不会	-11.6711
须得好好	-11.6712
沙包	-11.6712
坚实	-11.6712
整理	-11.6712
制服	-11.6712
乞儿	-11.6712
能耐	-11.6712
辈份	-11.6712
轻轻一拍	-11.6712
担当	-11.6712
招式	-11.6712
活命之	-11.6712
机妙	-11.6712
的目标是	-11.6712
树林之中	-11.6712
欺近	-11.6713
休想	-11.6713
闭门	-11.6713
箭枝	-11.6713
了他一眼	-11.6713
争夺	-11.6713
妖法	-11.6713
双耳	-11.6714
并不表示	-11.6714
六十年	-11.6714
杨铁心夫妇	-11.6714
洗脸	-11.6714
在这岛上	-11.6714
背后风声	-11.6714
身在半空	-11.6714
吸引力	-11.6714
扭动	-11.6714
场合	-11.6714
光滑	-11.6715
合围	-11.6715
大声惊呼	-11.6715
威势	-11.6715
拔步	-11.6715
横劈	-11.6715
清朝	-11.6715
流量	-11.6715
铁掌峰上	-11.6715
拚个	-11.6716
捉鬼	-11.6716
骨节	-11.6716
说给你听	-11.6716
你们俩	-11.6716
犹未	-11.6716
复原	-11.6716
草木	-11.6717
公文	-11.6717
举杖	-11.6717
害得我	-11.6717
分享	-11.6717
真乃	-11.6717
难熬	-11.6717
足尖	-11.6717
王公	-11.6718
还请	-11.6718
挑战	-11.6718
七位师父	-11.6718
点拨	-11.6718
娶妻	-11.6718
老爷子	-11.6718
脸蛋	-11.6718
捉鱼	-11.6718
经中武功	-11.6718
依你说	-11.6719
眼珠子	-11.6719
天柱	-11.6719
耽心	-11.6719
年纪轻轻	-11.6719
孙儿	-11.6719
肯不肯	-11.6719
寝宫	-11.6719
撞上了	-11.6719
象征性的	-11.6719
密门	-11.6719
明晚	-11.6719
毒物	-11.6719
久经	-11.6719
狂风	-11.6719
出手相助	-11.672
绝对不	-11.672
迷路	-11.672
凭空	-11.672
外用药	-11.672
结合	-11.672
火星	-11.672
而不仅仅是	-11.672
制度	-11.672
坐了下来	-11.672
野战	-11.6721
看到自己的	-11.6721
府中	-11.6721
转授	-11.6721
不禁大为	-11.6721
深仇大	-11.6721
守夜	-11.6722
执行	-11.6722
沿着	-11.6722
饶命	-11.6722
棺中	-11.6722
玩手机	-11.6722
字样	-11.6722
骨肉	-11.6722
关机	-11.6722
过了一顿饭	-11.6722
吸取	-11.6722
大金国钦使	-11.6723
捕快	-11.6723
青衣	-11.6723
相欺	-11.6723
何苦	-11.6723
决然	-11.6723
横臂	-11.6723
自然选择	-11.6724
也不打紧	-11.6724
甘心	-11.6724
鸟儿	-11.6724
右手五指	-11.6724
争斗	-11.6724
暴起	-11.6724
了几眼	-11.6724
向他后心	-11.6724
两银子	-11.6725
行凶	-11.6725
退缩	-11.6725
跛子曲三	-11.6725
长春	-11.6725
北归	-11.6725
柱子	-11.6725
红牛	-11.6725
足球	-11.6725
出乎	-11.6725
决胜	-11.6725
领路	-11.6725
大震	-11.6726
试招	-11.6726
办法	-11.6726
厉害得紧	-11.6726
拔剑	-11.6726
上满是	-11.6727
查看	-11.6727
射死了	-11.6727
正打在	-11.6727
福气	-11.6727
文物	-11.6727
清楚了	-11.6727
做错了	-11.6728
愕然不解	-11.6728
处境	-11.6728
刺耳	-11.6728
是错误的	-11.6728
善意	-11.6728
简直	-11.6729
进球	-11.6729
这些日子来	-11.6729
最初	-11.6729
拜服	-11.6729
一百多	-11.6729
想不明白	-11.6729
谢谢	-11.6729
两枝	-11.6729
打猎	-11.6729
月色	-11.6729
激动	-11.673
一阵疼痛	-11.673
比寻常	-11.673
忽视	-11.673
都感奇怪	-11.673
牢牢记住	-11.673
干草	-11.673
!!!	-11.673
发呆	-11.6731
邪气	-11.6731
舍命	-11.6731
一条条	-11.6731
费事	-11.6731
月经	-11.6731
你的妈妈	-11.6732
会武	-11.6732
乘早	-11.6732
说不出来	-11.6733
行止	-11.6733
潜心	-11.6733
很少	-11.6733
立功	-11.6733
甚喜	-11.6733
溜走	-11.6734
小舟	-11.6734
逃避	-11.6734
牵动	-11.6734
落单	-11.6734
把戏	-11.6734
递出	-11.6735
取了出来	-11.6735
扑击	-11.6735
想不通	-11.6735
甚是了得	-11.6736
足底	-11.6736
派兵	-11.6737
所写的	-11.6738
火光中	-11.6739
通晓	-11.6739
官家	-11.6739
心智	-11.6739
高台	-11.6739
血色	-11.6739
乱踢	-11.6739
全国	-11.674
管家	-11.674
已经死了	-11.674
扬声	-11.674
面包	-11.674
挣扎着	-11.674
呈上	-11.674
摆动	-11.6741
出丑	-11.6741
中途	-11.6741
金铁	-11.6742
紧紧搂住	-11.6742
了三天	-11.6742
用不着	-11.6742
来实现	-11.6743
大批	-11.6743
这铁尸	-11.6743
花钱	-11.6744
男儿	-11.6744
交战	-11.6745
负起	-11.6745
白布	-11.6745
名词	-11.6745
透气	-11.6745
天灵盖上	-11.6745
教主	-11.6746
相格	-11.6746
争先	-11.6746
咱们这就	-11.6747
极灵	-11.6747
翻脸	-11.6747
千斤	-11.6747
或其他	-11.6748
入宫	-11.6748
臭气	-11.6749
进城	-11.6749
桃树	-11.675
嵌入	-11.675
铁剑	-11.675
也不须	-11.6751
吐气	-11.6751
蛇血	-11.6751
每日	-11.6752
这公子	-11.6753
乱石	-11.6753
相避	-11.6753
所见的	-11.6753
相思	-11.6753
震开	-11.6754
行藏	-11.6754
处机	-11.6754
圣人	-11.6756
无一不是	-11.6756
源自	-11.6756
不知不觉	-11.6756
平花	-11.6757
做妻子	-11.6757
那姓郭的小子	-11.6759
撑地	-11.6759
来完成	-11.676
味儿	-11.676
扬长	-11.676
七个人	-11.6761
外部	-11.6762
会受到	-11.6762
也不一定	-11.6762
分布	-11.6762
睡倒	-11.6762
轿中	-11.6763
口服	-11.6763
致命	-11.6763
上了门	-11.6763
为止	-11.6763
两丐	-11.6764
另行	-11.6764
这套拳法	-11.6764
是哪一位	-11.6764
若干	-11.6764
负着	-11.6764
的秘奥	-11.6765
一刀杀了	-11.6765
小羊	-11.6765
拔起	-11.6766
▁这一晚	-11.6766
远离	-11.6766
那老丐	-11.6766
说话声音	-11.6766
异声	-11.6767
部落	-11.6767
怪招	-11.6767
自转	-11.6768
冲击	-11.6768
反过来	-11.6769
翻飞	-11.6769
在西方	-11.6769
受伤之后	-11.6769
逆行	-11.677
小王爷完颜康	-11.677
动画	-11.677
神经	-11.6771
生病了	-11.6771
狗命	-11.6772
要娶	-11.6772
非凡	-11.6772
此经	-11.6773
写作	-11.6773
为国	-11.6775
相称	-11.6775
挨打	-11.6775
可从来没	-11.6777
相加	-11.6778
猛推	-11.6778
而悟	-11.6779
一个少女	-11.6779
求教	-11.6779
却何以	-11.6779
反掌	-11.678
过期	-11.678
这藏僧	-11.6781
这一腿	-11.6782
透出	-11.6783
决不容	-11.6783
矮小	-11.6783
胆大	-11.6783
毕生	-11.6783
按着	-11.6783
在大漠中	-11.6784
体力	-11.6785
老实	-11.6785
扑地	-11.6786
给你听	-11.6786
四望	-11.6787
和功能	-11.6787
也算不了甚么	-11.6787
指使	-11.6788
想法子	-11.6789
须当	-11.6789
离家	-11.6789
带同	-11.679
几掌	-11.679
听他这么说	-11.6791
修为	-11.6791
抹去	-11.6791
口感	-11.6792
决胜负	-11.6792
乍见	-11.6793
发射	-11.6793
半招	-11.6794
发令	-11.6794
作者	-11.6794
打碎	-11.6794
塌了	-11.6794
书名	-11.6794
见谅	-11.6794
一下子	-11.6795
通行	-11.6796
惊动了	-11.6796
大驾	-11.6796
杆铁枪	-11.6796
墓室	-11.6797
身随	-11.6798
也打不过	-11.6798
这几天	-11.6798
盘子	-11.6799
急流	-11.6799
上厕所	-11.68
心中一惊	-11.68
去攻打	-11.6803
那藏僧	-11.6803
三国	-11.6803
遗体	-11.6804
到这里来	-11.6804
滚出来	-11.6804
只管	-11.6805
用来指代	-11.6805
既非	-11.6805
连珠箭	-11.6806
死不了	-11.6807
向那公子	-11.6807
伸左手	-11.6808
意思说	-11.6808
我大金	-11.6808
立时就要	-11.6808
一拚	-11.6809
东行	-11.6809
夺回	-11.681
但这并不	-11.681
闭上	-11.681
最难	-11.681
看守	-11.681
夹住	-11.6811
凝望着	-11.6812
盖上	-11.6812
忽然想到	-11.6812
聪明绝顶	-11.6813
难明	-11.6813
看不到	-11.6814
城头	-11.6814
转了个	-11.6814
才怪	-11.6815
依从	-11.6815
她的心	-11.6816
有福	-11.6816
全然不同	-11.6817
这三下	-11.6817
忘记了	-11.6818
隐藏	-11.6818
忽然之间	-11.6818
纯是	-11.6818
越快	-11.6819
意义上	-11.6819
右手反	-11.6819
三拳	-11.682
抢过去	-11.6821
这一击	-11.6821
两件	-11.6822
黄色的	-11.6823
反身	-11.6823
鱼儿	-11.6824
安排下	-11.6824
过节	-11.6826
此去	-11.6826
却忘了	-11.6827
地图	-11.6828
怒吼	-11.6829
译成	-11.683
这么久	-11.683
并不会影响	-11.683
我母子	-11.683
数十人	-11.6831
咱们再来	-11.6831
营房	-11.6833
之首	-11.6835
之礼	-11.6837
最先	-11.6839
大帐	-11.684
若是给他	-11.684
横里	-11.6841
暗暗吃惊	-11.6841
饶了你	-11.6842
后腿	-11.6842
夺取	-11.6844
全神贯注的	-11.6844
灵堂	-11.6845
神往	-11.6846
你怎么啦	-11.6847
掌柜的	-11.6847
七八步	-11.6847
一尺	-11.6848
定力	-11.6848
周伯通叹	-11.685
脱出	-11.685
这份	-11.6851
郭靖点头答应	-11.6851
大德	-11.6853
宋人	-11.6853
的地步	-11.6854
改过	-11.6856
长长	-11.6857
一堵	-11.6858
别在这里	-11.6858
头黑雕	-11.6858
难道不是	-11.6859
否则以	-11.6859
儿女	-11.686
已奔到	-11.686
几样	-11.686
白马	-11.6863
在黑暗中	-11.6864
蒙古兵将	-11.6864
然于	-11.6865
赶得	-11.6865
我辈	-11.6865
栽在	-11.6865
的目的	-11.6868
常用	-11.687
不知有多少	-11.687
加以	-11.687
大江	-11.6871
无信	-11.6871
之肉	-11.6872
遭劫	-11.6872
这一箭	-11.6873
文打	-11.6875
大河	-11.6875
还不及	-11.6875
两人一齐	-11.6878
行路	-11.6878
更不会	-11.6879
完好	-11.6879
按住了	-11.6879
砍掉	-11.688
两拳	-11.6881
天然	-11.6884
明明是个	-11.6885
拉着郭靖	-11.6885
一甩	-11.6886
夜中	-11.6886
衣囊	-11.6887
钩住	-11.6888
溜出	-11.6891
应对	-11.6891
真力	-11.6893
出世	-11.6893
事事	-11.6896
这两句	-11.6896
不听话	-11.6897
前年	-11.6899
你俩	-11.6901
你见到了	-11.6905
他夫人	-11.6906
所发	-11.6906
废了	-11.6906
直行	-11.6908
既能	-11.6908
要杀他	-11.691
回来啦	-11.6911
在临安府	-11.6912
的青蛇	-11.6912
的正常	-11.6915
屁眼	-11.6915
心眼	-11.6916
得天翻地覆	-11.6917
在石上	-11.6921
▁黄蓉听了	-11.6924
火头	-11.6926
洞来	-11.6927
得报	-11.6927
本可	-11.6929
眼里	-11.6929
邪魔	-11.6932
指向	-11.6933
▁那老人	-11.6933
这女孩儿	-11.6936
冷却	-11.6936
盲了	-11.6938
围成	-11.6938
极目远	-11.6938
竟连	-11.694
这许多人	-11.6941
而并非	-11.6941
气闷	-11.6943
苦笑	-11.6943
身处	-11.6943
怀孕了	-11.6944
变大	-11.6944
金国王子	-11.6945
两穴	-11.6945
发难	-11.6948
有益	-11.6948
私人	-11.6948
停住	-11.6948
饶是他	-11.6949
大宛国	-11.6949
使个	-11.695
不止	-11.695
黄药师父女	-11.695
的肤色	-11.695
的遗物	-11.6953
踢开	-11.6954
手提	-11.6957
松开	-11.6958
欧阳锋厉声	-11.6958
不乐	-11.6961
▁枯木	-11.6963
如同	-11.6963
不适当	-11.6964
欧阳锋一怔	-11.6965
手挥	-11.6965
颈上	-11.6965
决意要	-11.6966
大师兄	-11.6969
一个人影	-11.6972
戴了	-11.6974
一寸	-11.6975
那巨岩	-11.6976
兵卒	-11.6979
随后赶	-11.698
就知	-11.698
剩下的	-11.6982
别忙	-11.6983
不用怕	-11.6986
刚从	-11.6987
接触到	-11.6988
在世上	-11.6989
多谢你	-11.6993
加之	-11.6998
说的话	-11.7
长江	-11.7003
的要旨	-11.7004
亲自去	-11.7004
之敌	-11.701
以至	-11.7015
练到了	-11.7016
他背后	-11.7018
坐下来	-11.7025
转为	-11.7026
那店小二	-11.7029
气力	-11.7031
大小便	-11.7036
名兵丁	-11.7039
拔出来	-11.704
知名	-11.7042
说一句话	-11.7045
也找不到	-11.7046
手笔	-11.705
让师父	-11.7055
不饮	-11.7056
在崖顶	-11.7058
老师说	-11.7059
日出	-11.706
夹在	-11.7061
被他抓住	-11.7065
不见得	-11.7067
一掷	-11.7069
皆是	-11.707
下酒	-11.707
听他叫	-11.7072
吃掉	-11.7073
两人各自	-11.7075
卷住	-11.7077
服下	-11.708
骗他	-11.7082
掌劈	-11.7087
也没用	-11.7087
她是在	-11.7092
之数	-11.7097
入水中	-11.7097
后门	-11.7103
生前	-11.7105
写下	-11.7105
又有何	-11.7107
那般	-11.7109
谢我	-11.7112
劲敌	-11.7119
见机	-11.7122
故人	-11.7123
那时候我	-11.7125
有甚么法子	-11.7125
就可惜	-11.7132
一滑	-11.7133
郭靖答应了	-11.7134
生满	-11.7136
进化出	-11.7137
而不是说	-11.7137
二十余	-11.714
做他的	-11.7143
那使者	-11.7144
教了他	-11.715
搜去	-11.7156
电光	-11.7158
倒水	-11.7161
颜烈笑	-11.7166
静静	-11.7176
你赢了	-11.7177
并不能使	-11.7178
酒家	-11.7178
你可以在	-11.7186
不会因为	-11.7192
害无辜	-11.7199
个数字	-11.7199
块大石	-11.72
别管	-11.7208
他的弟子	-11.722
抬头向	-11.7222
把孩子	-11.7232
变作	-11.7232
这时听了	-11.7234
都被他	-11.7238
赫然	-11.7241
太不	-11.7247
要杀你	-11.7249
未复	-11.7251
他这几句话	-11.7254
蛇头	-11.7259
被逼得	-11.7262
衣上	-11.7262
布衫	-11.7278
我不去	-11.728
想当年	-11.7285
这么厉害	-11.7291
黄药师脸色	-11.7298
普天下的	-11.7298
迎了上	-11.7301
想逃	-11.7302
说起来	-11.7308
要坐	-11.731
两人来到	-11.7312
是我师哥	-11.7313
把铜缸	-11.7314
骗你	-11.7326
言语中	-11.7338
难道当真	-11.7343
并排	-11.7345
丫头	-11.7352
直飞出去	-11.7352
也不等	-11.7358
传给了	-11.7362
在山上	-11.7369
认不出	-11.7371
涌进	-11.7376
任他	-11.7377
因为这是	-11.738
望见	-11.7381
吞下	-11.7382
个大字	-11.7383
外门	-11.7384
墙头	-11.7387
小马	-11.7393
知对方	-11.7396
无法改变	-11.74
凸出	-11.7401
见他神情	-11.7408
我知道你	-11.7412
黑夜	-11.7431
好生奇怪	-11.7432
有这等事	-11.7444
鞭头	-11.745
进村	-11.746
真像	-11.7465
不答话	-11.7481
上土山	-11.7493
沉船	-11.7509
心中也是	-11.7511
点起	-11.7519
逼出	-11.7521
珍珠	-11.7531
那根	-11.7533
并不能改变	-11.7538
知他武功	-11.754
欧阳锋与郭靖	-11.7542
知道此人	-11.7551
穿鞋	-11.7553
是圆的	-11.7555
下去罢	-11.7559
定能	-11.7562
竟是一个	-11.7566
改成	-11.7569
一口酒	-11.7574
再瞧	-11.7576
提刀	-11.7578
打断了	-11.7602
没有见过	-11.7609
做得出	-11.7616
心想此人	-11.7619
在门后	-11.7626
为甚么不	-11.7628
墓门	-11.7641
大蛇	-11.7646
白衫	-11.7681
怕伤了	-11.7682
饶他	-11.7687
补充	-11.769
现下咱们	-11.7709
远远传	-11.7711
跟谁	-11.7715
被击	-11.7716
微末功夫	-11.772
明天再	-11.7724
来救我	-11.7725
东南	-11.7727
是因为它们	-11.7736
虽不及	-11.7739
有无数	-11.7748
惨叫	-11.7749
一抹	-11.775
厅门	-11.775
是铁掌帮	-11.7755
相抵	-11.777
刀光	-11.777
已知他	-11.7775
喀喇喇一声	-11.7775
更令	-11.7777
喀喇	-11.7784
推动	-11.7793
的身份	-11.7838
邪门	-11.7838
入耳	-11.7842
杀完颜洪烈	-11.7846
抓下	-11.7847
任何关系	-11.7848
用手指	-11.7852
峰壁	-11.7864
有灵	-11.7867
仍被	-11.7867
一股劲风	-11.7872
喝一声	-11.7874
瞧出来	-11.7879
了提防	-11.7884
拆了三	-11.7887
奈何他不得	-11.7893
凸	-11.7898
洞箫	-11.7907
将手中	-11.7909
出十余丈	-11.791
形相	-11.7912
是女性	-11.7917
更换	-11.7919
总是给	-11.7936
在洞内	-11.7948
论剑之期	-11.7948
叫什么	-11.7954
全真七子中	-11.7969
好几次	-11.799
摔出	-11.8001
声呼啸	-11.8019
知己	-11.803
除非你	-11.8046
郭靖又惊又喜	-11.8059
未必能胜	-11.8068
钻进了	-11.8079
虚构的	-11.808
数说	-11.8085
没空	-11.8085
刀枪	-11.81
人形	-11.8104
听父亲说	-11.8106
白影	-11.8118
官儿	-11.8119
北风	-11.8121
左手疾	-11.8123
遭难	-11.8128
并不影响	-11.8131
惊喜	-11.8137
十根	-11.8142
冷水	-11.8152
你不去	-11.8158
得清清楚楚	-11.8176
这一着	-11.8177
跃进	-11.8177
会导致	-11.8179
哪里去了	-11.8184
急智	-11.8193
特定	-11.8195
急跃	-11.8201
一碗酒	-11.8206
剑刺	-11.8207
只余	-11.8207
感恩	-11.8214
两碗	-11.8222
而卧	-11.8224
清香	-11.8227
退几步	-11.8229
二十多	-11.8231
截断	-11.8237
忽施	-11.8241
荷花	-11.8256
没法	-11.8262
暗赞	-11.8296
四年	-11.8298
换上	-11.8302
数百斤	-11.8306
可说是	-11.8311
轻拍	-11.8313
符合	-11.8316
使不出	-11.8324
他本想	-11.8328
急欲	-11.8333
无影无踪	-11.8335
京城	-11.8338
下头去	-11.8343
时常	-11.8344
黄蓉点点头	-11.8351
五根手指	-11.8352
七年	-11.8366
裘老帮主	-11.8367
毒针	-11.8369
很难	-11.838
几转	-11.838
请安	-11.8384
鸭蛋	-11.8388
适当的	-11.8394
射倒	-11.8401
换过	-11.8423
一杯酒	-11.8425
打发了	-11.8437
就该	-11.8444
正要上前	-11.8454
天早晨	-11.8457
乐意	-11.8463
到第四	-11.8464
站住	-11.847
莽	-11.8471
远望	-11.8474
已全然	-11.8475
极目	-11.8476
赐教	-11.848
登感	-11.848
个体	-11.8497
这些事	-11.8499
自然知道	-11.8503
裹住	-11.8505
在前头	-11.8514
一壶	-11.8514
有一日	-11.8522
以后再	-11.8526
▁这可能	-11.8537
更多的是	-11.8537
眼看着	-11.8538
吃了一记	-11.854
手托	-11.8544
旨在	-11.8544
一皱	-11.8544
顶心	-11.8546
怔怔	-11.8555
半晌不语	-11.8557
簌簌	-11.8561
声惊呼	-11.8575
名号	-11.8577
心中又惊又	-11.8579
曲儿	-11.8579
乍	-11.858
在宫中	-11.8586
但它并不	-11.8601
黄色	-11.8608
快杀	-11.8613
林外	-11.8618
倘	-11.8623
费心	-11.8624
呀的一声	-11.8627
身负	-11.8632
这一晚	-11.8633
呈	-11.8635
有一种	-11.8637
庙里	-11.864
幕	-11.8643
需要的是	-11.8643
拱	-11.8645
店前	-11.8647
该不该	-11.865
跟他说	-11.8655
臀	-11.8655
空明	-11.8656
悦	-11.8657
寒风	-11.8657
递了过去	-11.8659
在战场上	-11.866
给我听	-11.866
腕骨	-11.8663
死于	-11.8668
宝应	-11.867
谐	-11.8673
骷髅头骨	-11.8673
谎话	-11.8677
拇指	-11.8678
育	-11.8679
全传	-11.868
胯	-11.8682
消化系统	-11.8683
刹	-11.8683
精奥	-11.8684
许婚	-11.8685
岔	-11.8686
系列	-11.8687
点着了	-11.8687
拒	-11.8688
了十成力	-11.8688
女友	-11.8688
伪	-11.8688
怦怦乱跳	-11.8688
帘	-11.8688
忆	-11.8688
伟	-11.8688
篇小说	-11.8689
烛光	-11.8689
螺	-11.8689
渴	-11.869
耻	-11.869
验	-11.869
催促	-11.869
肤	-11.8691
吠	-11.8691
猴	-11.8691
纹丝不动	-11.8691
欠	-11.8691
什	-11.8691
怖	-11.8691
申	-11.8691
衙役	-11.8692
菌	-11.8692
婉	-11.8692
艰	-11.8692
为两截	-11.8692
链	-11.8692
反坦克炮	-11.8692
脾	-11.8692
北极星	-11.8692
盔	-11.8692
偶	-11.8693
廿	-11.8693
纪	-11.8693
棉	-11.8693
揪	-11.8693
媳妇	-11.8693
朽	-11.8694
毅力	-11.8694
鼾	-11.8694
越女剑	-11.8694
千手人屠	-11.8694
铅	-11.8694
磁	-11.8694
无法可施	-11.8694
撑持	-11.8694
六太子	-11.8694
焰	-11.8694
赚	-11.8694
慨	-11.8694
睹	-11.8695
慑	-11.8695
坛	-11.8695
舍命相救	-11.8695
妆	-11.8695
栗	-11.8695
三门峡	-11.8695
脑浆迸裂	-11.8695
毒龙鞭	-11.8695
一转念间	-11.8695
天罡北斗	-11.8695
眩	-11.8695
钦宗	-11.8695
洋	-11.8695
两个时辰	-11.8695
王道乾	-11.8695
这贼子	-11.8695
祠	-11.8695
孟	-11.8695
台下群丐	-11.8695
怒目而视	-11.8695
捋	-11.8695
必有蹊跷	-11.8695
绰	-11.8695
恶狠狠的	-11.8695
所作所为	-11.8695
黄蓉秀眉	-11.8695
十天半月	-11.8695
不害臊	-11.8695
一点儿也不错	-11.8695
犹太人	-11.8695
韩三爷	-11.8695
糊	-11.8695
择	-11.8695
不到一盏茶	-11.8695
口口声声	-11.8695
山川	-11.8695
冥	-11.8695
一饮而尽	-11.8695
啃	-11.8695
撅	-11.8695
以色列	-11.8696
筒	-11.8696
尹	-11.8696
垂下泪来	-11.8696
斋	-11.8696
有骨气	-11.8696
碱	-11.8696
嬉	-11.8696
大汗淋漓	-11.8696
摸了摸	-11.8696
牡丹	-11.8696
磷	-11.8696
簇	-11.8696
解决方案	-11.8696
郭靖连声称是	-11.8696
伯仲	-11.8696
宅第	-11.8696
找上门来	-11.8696
赤列都	-11.8696
讥	-11.8696
蛟	-11.8696
I	-11.8696
危害国家安全	-11.8696
女娃儿	-11.8696
小行星	-11.8696
津津有味	-11.8696
炽	-11.8696
牙垢	-11.8696
笑弥陀张阿生	-11.8696
理发店	-11.8696
梗	-11.8696
司马光	-11.8696
嫔	-11.8696
正确的做法应该是	-11.8696
说话解闷	-11.8696
轻松自在	-11.8696
道君皇帝	-11.8696
馋	-11.8696
七颗龙珠	-11.8696
仰天打个哈哈	-11.8696
厚厚的	-11.8696
说个清楚	-11.8696
仇深似海	-11.8696
交过手	-11.8696
反作用力	-11.8696
家学渊源	-11.8696
茫然失措	-11.8696
蔬菜	-11.8696
铁木真和札木合	-11.8696
饮水机	-11.8696
避孕套	-11.8696
抗生素	-11.8696
水龙头	-11.8696
寂然无声	-11.8696
是友是敌	-11.8696
目不转瞬的	-11.8696
知难而退	-11.8696
喽	-11.8696
那么问题来了	-11.8696
L	-11.8696
_	-11.8696
v	-11.8696
』	-11.8696
一连串	-11.8696
光合作用	-11.8696
冷眼旁观	-11.8696
天花板	-11.8696
小心地滑	-11.8696
弯下腰	-11.8696
德薛禅	-11.8696
摄氏度	-11.8696
滚来滚去	-11.8696
瑟	-11.8696
目不转睛的	-11.8696
空手夺白刃	-11.8696
身体状况	-11.8696
逍遥巾	-11.8696
青铜器	-11.8696
指南针	-11.8696
海贼王	-11.8696
鼠标和键盘	-11.8696
郁郁	-11.8696
▁rt	-11.8696
杀声震天	-11.8696
神箭手	-11.8696
东北角	-11.8696
从何处得来	-11.8696
任何形式的	-11.8696
北斗七星	-11.8696
去医院检查	-11.8696
史丞相	-11.8696
在日光下	-11.8696
姊妹	-11.8696
房间里	-11.8696
是两种不同的	-11.8696
牛顿第三定律	-11.8696
班主任	-11.8696
老人卡	-11.8696
哥儿俩	-11.8696
乱成一片	-11.8696
适配器	-11.8696
一场大病	-11.8696
已大非昔比	-11.8696
指手划脚	-11.8696
放慢脚步	-11.8696
泥鳅功	-11.8696
液化气	-11.8696
监考老师	-11.8696
翅膀	-11.8696
至于你说的	-11.8696
过氧化钠	-11.8696
长发披	-11.8696
理发师	-11.8696
疫苗	-11.8696
锯	-11.8696
惭	-11.8696
此起彼	-11.8696
注视	-11.8696
不顺眼	-11.8696
云雾之中	-11.8696
劳什子	-11.8696
师傅	-11.8696
心甘情愿	-11.8696
杀马特	-11.8696
闲逛	-11.8696
电线杆	-11.8696
疆	-11.8696
荷荷	-11.8696
匪	-11.8696
一千两银子	-11.8696
伏地大哭	-11.8696
冲口而出	-11.8696
听爹爹说过	-11.8696
图书馆	-11.8696
得头晕眼花	-11.8696
火龙果	-11.8696
舐	-11.8696
通过这种方式	-11.8696
逮	-11.8696
模仿	-11.8696
还有命	-11.8696
基因突变	-11.8696
脸色焦黄	-11.8696
旷	-11.8696
千言万语	-11.8696
半晌说不出话来	-11.8696
双煞	-11.8696
捡拾	-11.8696
是何等人物	-11.8696
模式	-11.8696
武功全失	-11.8696
追风黄	-11.8696
饮几杯	-11.8696
捆	-11.8696
被用作	-11.8696
NaOH	-11.8696
神奇宝贝	-11.8696
一言为定	-11.8696
交通规则	-11.8696
俚	-11.8696
甸	-11.8696
碧海潮生	-11.8696
絮	-11.8696
翻来覆去	-11.8696
诚恳	-11.8696
过半晌	-11.8696
问个明白	-11.8696
防毒面具	-11.8696
麻核	-11.8696
珠穆朗玛峰	-11.8696
嘶哑着嗓子	-11.8696
惘	-11.8696
楞楞的	-11.8696
一动不动的	-11.8697
个水落石出	-11.8697
妙用无穷	-11.8697
有道之士	-11.8697
梁二长老	-11.8697
湿润	-11.8697
落花流水	-11.8697
越看越	-11.8697
它的功能是	-11.8697
x	-11.8697
400	-11.8697
千难万难	-11.8697
又缩了回去	-11.8697
哒	-11.8697
喝了一声彩	-11.8697
嗜	-11.8697
嘻嘻哈哈的	-11.8697
奉立帮主	-11.8697
帚	-11.8697
当啷啷	-11.8697
拄	-11.8697
灯笼火把	-11.8697
灵丹妙药	-11.8697
胡思乱想	-11.8697
鸿	-11.8697
免疫	-11.8697
狐疑	-11.8697
秋裤	-11.8697
鼠辈	-11.8697
泰亦赤兀惕人	-11.8697
1000	-11.8697
又悲又	-11.8697
召唤	-11.8697
夺门而出	-11.8697
招讨使	-11.8697
桑昆和札木合	-11.8697
绌	-11.8697
脑残粉	-11.8697
走近身去	-11.8697
蹙眉	-11.8697
哲	-11.8697
三脚猫	-11.8697
不能简单地	-11.8697
兑	-11.8697
兜截	-11.8697
凝神注视	-11.8697
哈虎文钵英	-11.8697
岳阳楼	-11.8697
平平无奇	-11.8697
树巅	-11.8697
的风险	-11.8697
船靠岸	-11.8697
跌跌撞撞	-11.8697
如虎添翼	-11.8697
笛	-11.8697
一问一答	-11.8697
与人动武	-11.8697
十八年来	-11.8697
届	-11.8697
强行忍住	-11.8697
湖滨	-11.8697
神采飞扬	-11.8697
笠	-11.8697
罕见罕闻	-11.8697
衔	-11.8697
言出必	-11.8697
钞	-11.8697
阙	-11.8697
预测	-11.8697
伊	-11.8697
廉	-11.8697
世界地图	-11.8697
一招一式	-11.8697
不吉利	-11.8697
云栖寺	-11.8697
呼的一掌	-11.8697
奋起平生之力	-11.8697
捆缚	-11.8697
擒获	-11.8697
溯	-11.8697
炉火纯青	-11.8697
笑出声来	-11.8697
规范	-11.8697
个个武功	-11.8697
一先一后	-11.8697
伸出手来	-11.8697
悲喜交集	-11.8697
有助于	-11.8697
陨石	-11.8697
手舞足蹈	-11.8697
抽抽噎噎的	-11.8697
昂起了头	-11.8697
笨拙	-11.8697
需要大量的	-11.8697
互道别来	-11.8697
急切难	-11.8697
牵着郭靖的手	-11.8697
师侄	-11.8697
一口唾液	-11.8697
也还罢了	-11.8697
千里迢迢	-11.8697
定一定神	-11.8697
探手入	-11.8697
死于非命	-11.8697
熔	-11.8697
已不在人世	-11.8697
惊心动魄	-11.8697
称她为	-11.8697
高举过顶	-11.8697
从怀中摸出	-11.8697
肿胀	-11.8697
的妻子蒲儿帖	-11.8697
颠簸	-11.8697
我拜你为师	-11.8697
浑浑噩噩	-11.8697
貂皮	-11.8697
走火入魔	-11.8697
钓杆	-11.8697
煎	-11.8697
亡妻	-11.8697
伙计	-11.8697
删	-11.8697
喝了几口	-11.8697
山坡羊	-11.8697
崇	-11.8697
快速无伦	-11.8697
金碧辉煌	-11.8697
铁掌帮帮主裘千仞	-11.8697
答不上来	-11.8697
唾	-11.8697
太湖群雄	-11.8697
光溜溜的	-11.8697
全无血色	-11.8697
喜极而	-11.8697
敝帮	-11.8697
猎犬	-11.8697
纠缠不清	-11.8697
萦	-11.8697
蝮蛇宝血	-11.8697
血肉模糊	-11.8697
仁慈	-11.8697
的评价	-11.8697
聆	-11.8697
胀红了脸	-11.8697
覆盖	-11.8697
镇慑心神	-11.8697
得心应手	-11.8697
一臂之力	-11.8697
不争气	-11.8697
兜圈子	-11.8697
唾吐	-11.8697
岳父大人	-11.8697
心念忽动	-11.8697
溜之大吉	-11.8697
神算子	-11.8697
见死不救	-11.8697
嬉皮笑脸	-11.8697
进化出翅膀	-11.8697
威名远震	-11.8697
纳罕	-11.8697
钗	-11.8697
痴痴	-11.8697
七月初	-11.8698
丹田之气	-11.8698
层出不穷	-11.8698
污染	-11.8698
红衣少女	-11.8698
纸笺	-11.8698
脸色一沉	-11.8698
蛾	-11.8698
这是一种心理	-11.8698
馋嘴	-11.8698
众军士齐声	-11.8698
在其内	-11.8698
注册	-11.8698
铜尸铁尸	-11.8698
大为诧异	-11.8698
一本正经的	-11.8698
册封	-11.8698
凄凉	-11.8698
凉了半截	-11.8698
折为两截	-11.8698
有恃无恐	-11.8698
白昼	-11.8698
绢	-11.8698
血渍	-11.8698
邪魔外道	-11.8698
钹	-11.8698
忠诚	-11.8698
钟表	-11.8698
粉末	-11.8698
跌入海中	-11.8698
地球自转	-11.8698
滞	-11.8698
各执兵刃	-11.8698
种植	-11.8698
个千人队	-11.8698
乌篷船	-11.8698
抵赖	-11.8698
拳打足踢	-11.8698
跚	-11.8698
蹒	-11.8698
身经百战	-11.8698
明霞岛	-11.8698
可要小心了	-11.8698
钦察	-11.8698
乞讨	-11.8698
草帽	-11.8698
个美貌少女	-11.8698
杯筷	-11.8698
充电器	-11.8698
来求亲	-11.8698
脑浆	-11.8698
严厉	-11.8698
深不可测	-11.8698
灯烛	-11.8698
生平绝学	-11.8698
疾驰而去	-11.8698
缎子	-11.8698
舵柄	-11.8698
衬	-11.8698
见势头不	-11.8698
得好快	-11.8698
怪僻	-11.8698
手执兵刃	-11.8698
旷野	-11.8698
燃料	-11.8698
优秀	-11.8698
具尸首	-11.8698
原作者	-11.8698
棵大树	-11.8698
污秽	-11.8698
猛喝一声	-11.8698
硬碰硬	-11.8698
翁	-11.8698
向里张望	-11.8698
钓丝	-11.8698
思乡	-11.8698
100	-11.8698
一艘船	-11.8698
纷纷议论	-11.8698
雨伞	-11.8698
200	-11.8698
不怀好意	-11.8698
惨酷	-11.8698
推荐	-11.8698
称他为	-11.8698
两头豹子	-11.8698
所需的	-11.8698
捶胸	-11.8698
果然名不虚传	-11.8698
沈青刚	-11.8698
苗	-11.8698
14	-11.8698
幕府	-11.8698
痴呆	-11.8698
岁儿童	-11.8698
九个骷髅头	-11.8698
侯老爷	-11.8698
叙述	-11.8698
寓意	-11.8698
尺寸	-11.8698
桂	-11.8698
肚兜	-11.8698
轩	-11.8698
这幅图	-11.8698
钢索	-11.8698
顾忌	-11.8698
哇的一声	-11.8698
微一迟疑	-11.8698
铁盔	-11.8698
吐痰	-11.8698
庵	-11.8698
敏捷	-11.8698
来来去去	-11.8698
猎叉	-11.8698
皮帽	-11.8698
省悟	-11.8698
纤腰	-11.8698
经中所述	-11.8698
说一是一	-11.8698
雅兰花	-11.8698
仙霞派	-11.8699
化学物质	-11.8699
呼叱	-11.8699
挑担	-11.8699
置之不理	-11.8699
转瞬之间	-11.8699
印证	-11.8699
又快又准	-11.8699
呆滞	-11.8699
坐在椅上	-11.8699
对鸳鸯	-11.8699
是响当当的	-11.8699
波兰	-11.8699
滑腻	-11.8699
状元公	-11.8699
神威凛凛	-11.8699
鞭梢	-11.8699
十根手指	-11.8699
典故	-11.8699
受挫	-11.8699
壮志	-11.8699
来捉拿	-11.8699
中气充沛	-11.8699
两浙	-11.8699
推测	-11.8699
朱聪和全金发	-11.8699
搔搔头	-11.8699
周旋	-11.8699
姑姑	-11.8699
挖掘	-11.8699
脊骨	-11.8699
讥刺	-11.8699
浊	-11.8699
疾趋	-11.8699
添加	-11.8699
熟鸡蛋	-11.8699
笼罩	-11.8699
寂静	-11.8699
丘师弟	-11.8699
丝巾	-11.8699
伤她性命	-11.8699
又自不同	-11.8699
屈膝	-11.8699
得五体投地	-11.8699
毛毡	-11.8699
称得上	-11.8699
赵宋	-11.8699
较艺	-11.8699
成绩	-11.8699
哪里还敢	-11.8699
尊驾	-11.8699
奔驰来去	-11.8699
实验	-11.8699
那白发老头	-11.8699
并辔	-11.8699
维护	-11.8699
走上前来	-11.8699
飘逸	-11.8699
举起马鞭	-11.8699
变化精微	-11.8699
我那贼汉子	-11.8699
晦气	-11.8699
武侠小说	-11.8699
眼花缭乱	-11.8699
瞪目而视	-11.8699
降温	-11.8699
食材	-11.8699
难说得很	-11.8699
领导	-11.8699
妙哉	-11.8699
政府	-11.8699
的神气	-11.8699
音律	-11.8699
鹊	-11.8699
亥	-11.8699
安抚使	-11.8699
感到饿	-11.87
也算得是	-11.87
卷轴	-11.87
掩埋	-11.87
斟酒	-11.87
江南豪杰	-11.87
碗橱	-11.87
险些摔倒	-11.87
荆州	-11.87
荒漠	-11.87
吃了几口	-11.87
杨家枪	-11.87
上乘轻功	-11.87
水稻	-11.87
政权	-11.87
所住的	-11.87
桃花	-11.87
处心积虑	-11.87
上刻了	-11.87
汉奸	-11.87
标记	-11.87
艇首	-11.87
乙	-11.87
广泛	-11.87
衣裤	-11.87
哑谜	-11.87
待得惊觉	-11.87
楼层	-11.87
节奏	-11.87
觅路	-11.87
隘	-11.87
飘荡	-11.87
丸药	-11.87
白了他一眼	-11.87
兔肉	-11.87
但在实际	-11.87
得更紧	-11.87
湍急	-11.87
火花四溅	-11.87
立时醒悟	-11.87
有种的	-11.87
嫌弃	-11.87
一对金娃娃	-11.87
躲不开	-11.87
一拳一脚	-11.87
场景	-11.87
犯不着	-11.87
脸一沉	-11.87
财主	-11.87
贾	-11.87
蹲下身子	-11.87
救人要紧	-11.87
酒坛	-11.87
报讯	-11.87
越墙而出	-11.87
讽	-11.87
咏	-11.87
徒孙	-11.87
眼圈儿	-11.87
蒲团之上	-11.87
铜尸陈玄风	-11.87
睁开	-11.8701
一不做	-11.8701
不知不觉之间	-11.8701
亲近亲近	-11.8701
任务	-11.8701
回到帐中	-11.8701
拐杖	-11.8701
这路掌法	-11.8701
依据	-11.8701
拜倒在地	-11.8701
哨探	-11.8701
害羞	-11.8701
还差得远	-11.8701
虚拟	-11.8701
远超过	-11.8701
亡故	-11.8701
全然不会武功	-11.8701
盟约	-11.8701
的那块	-11.8701
随即会意	-11.8701
命名为	-11.8701
粗壮	-11.8701
肉搏	-11.8701
这两个小贼	-11.8701
毒丸	-11.8701
饭桶	-11.8701
杨叔父	-11.8701
飞天蝙蝠柯镇恶	-11.8701
龙珠	-11.8701
佩刀	-11.8701
拍手大笑	-11.8701
斑马	-11.8701
柴油	-11.8701
伏在桌上	-11.8701
气概	-11.8701
绝顶聪明	-11.8701
那还用	-11.8701
亡母	-11.8701
双钹	-11.8701
国漫	-11.8701
▁斗到	-11.8701
大声喝彩	-11.8701
七位恩师	-11.8701
孝宗	-11.8701
拙荆	-11.8701
机敏	-11.8701
配备	-11.8701
飞翔	-11.8701
鲜果	-11.8701
抽烟	-11.8702
愉快	-11.8702
久久不	-11.8702
是在开玩笑	-11.8702
血竭	-11.8702
诱敌	-11.8702
盐分	-11.8702
总有一日	-11.8702
横了一眼	-11.8702
腐败	-11.8702
禁宫	-11.8702
歹意	-11.8702
小杂种	-11.8702
情深爱	-11.8702
群雄	-11.8702
越女剑法	-11.8702
种类	-11.8702
隔了片刻	-11.8702
鼓勇	-11.8702
千颗	-11.8702
柴草	-11.8702
大理石	-11.8702
吠叫	-11.8702
拍的一响	-11.8702
介意	-11.8702
宋太祖	-11.8702
在这里可能是指	-11.8702
不是他的敌手	-11.8702
白袍	-11.8702
剃掉	-11.8702
计算机	-11.8702
茶杯	-11.8702
洪亮	-11.8702
四弟	-11.8702
干粮	-11.8702
精锐	-11.8702
状元	-11.8702
脾气古怪	-11.8702
惨状	-11.8702
老鼠药	-11.8702
喝干了	-11.8702
左肘	-11.8703
放肆	-11.8703
有了防备	-11.8703
泰山	-11.8703
在灯下	-11.8703
跃上大船	-11.8703
互相望了一眼	-11.8703
拥抱	-11.8703
罩住	-11.8703
变色龙	-11.8703
机智	-11.8703
惊呼一声	-11.8703
复习	-11.8703
嫁给都史	-11.8703
旅途	-11.8703
无人能敌	-11.8703
逐步	-11.8703
闲谈	-11.8703
的住处	-11.8703
宗皇帝	-11.8703
干草堆	-11.8703
停息	-11.8703
恍若	-11.8703
武功高强之人	-11.8703
呈给	-11.8703
落英神剑掌法	-11.8703
奸细	-11.8703
饭店	-11.8703
木盒	-11.8703
累累	-11.8703
讨论	-11.8703
甜美	-11.8703
其详	-11.8703
专利	-11.8703
出名的	-11.8704
长篙	-11.8704
心中一荡	-11.8704
铁哥	-11.8704
紧张	-11.8704
是一款	-11.8704
马缰	-11.8704
掌舵	-11.8704
稍息	-11.8704
坚持	-11.8704
列仙	-11.8704
不好意思	-11.8704
班师	-11.8704
胜仗	-11.8704
绝境	-11.8704
到牛家村来	-11.8704
更适合	-11.8704
跌倒在地	-11.8704
亨	-11.8704
爱慕	-11.8704
郭爷	-11.8704
钢铁	-11.8704
怪兽	-11.8704
姓段	-11.8704
试卷	-11.8704
在他的手里	-11.8704
只吓得魂飞	-11.8704
步履	-11.8704
加剧	-11.8704
泡酒	-11.8704
一只酒杯	-11.8704
缓步走到	-11.8704
南瓜	-11.8705
铁掌水上飘裘千仞	-11.8705
抓起一把	-11.8705
湿透	-11.8705
岂不甚	-11.8705
尊姓	-11.8705
宝庄	-11.8705
脱缚	-11.8705
双眉	-11.8705
宝贵	-11.8705
不知如何回答	-11.8705
修建	-11.8705
联在一起	-11.8705
闪电	-11.8705
为什么不直接	-11.8705
拜谢	-11.8705
干休	-11.8705
无别法	-11.8705
侍立	-11.8705
黄老邪的女儿	-11.8705
并不在意	-11.8705
征战	-11.8705
救我性命	-11.8705
狂呼	-11.8706
斯文	-11.8706
压将下来	-11.8706
注视着	-11.8706
下半部	-11.8706
威严	-11.8706
在树林中	-11.8706
窝阔台与拖雷	-11.8706
前来相救	-11.8706
闻到一阵	-11.8706
伸手去拿	-11.8706
觉有趣	-11.8706
侧耳	-11.8706
晚晚	-11.8706
突围	-11.8706
众寨主	-11.8706
众黑雕	-11.8706
疏通	-11.8706
延年	-11.8706
稍加	-11.8707
宝宝	-11.8707
恳求	-11.8707
牢牢抓住	-11.8707
相搏	-11.8707
人类社会	-11.8707
叩见	-11.8707
低头不语	-11.8707
臂弯里	-11.8707
安顿	-11.8707
禁军	-11.8707
俯眼	-11.8707
坚硬	-11.8707
打他一个	-11.8707
钉在地下	-11.8707
投机	-11.8707
帮主号令	-11.8707
清醒	-11.8707
俯跌	-11.8707
勒住	-11.8707
生理需求	-11.8707
另有一番	-11.8708
割切	-11.8708
花丛	-11.8708
光鲜	-11.8708
外家功夫	-11.8708
一双眼睛	-11.8708
卖弄	-11.8708
缸内	-11.8708
已经死亡	-11.8708
篾儿乞惕人	-11.8708
粗索	-11.8708
反抗	-11.8708
向他请教	-11.8708
斜斜	-11.8708
钻了出来	-11.8708
修复	-11.8708
器官	-11.8708
鞭圈	-11.8708
腾的一声	-11.8708
不再理会	-11.8709
前后左右	-11.8709
拖雷安答	-11.8709
的光头	-11.8709
波的一声	-11.8709
心下焦急	-11.8709
进行攻击	-11.8709
难以脱身	-11.8709
手按	-11.8709
精品	-11.8709
翻译	-11.8709
一名官兵	-11.8709
中了一拳	-11.8709
两仆	-11.8709
长岭	-11.8709
了一大半	-11.8709
决计不肯	-11.871
极为了得	-11.871
从所未见	-11.871
救他性命	-11.871
也不放在心上	-11.871
四长老	-11.871
在这里并不是指	-11.871
长凳	-11.871
像素	-11.871
提高声音	-11.871
倏忽	-11.871
巧妙	-11.871
墙角	-11.871
奔波	-11.871
投掷	-11.871
调节	-11.871
不仅不能	-11.8711
橱里	-11.8711
任帮主	-11.8711
轻击	-11.8711
镇定	-11.8711
怪责	-11.8711
那姓杨的	-11.8711
林中道路	-11.8711
柜上	-11.8711
性命要紧	-11.8711
素闻	-11.8711
躲藏	-11.8711
料想必是	-11.8711
向前疾	-11.8711
科学家	-11.8711
设立	-11.8711
惊魂	-11.8711
杂乱	-11.8711
领土	-11.8711
记认	-11.8711
你不肯说	-11.8712
不觉一惊	-11.8712
这口恶气	-11.8712
深究	-11.8712
上了岸	-11.8712
战局	-11.8712
插嘴	-11.8712
眉间	-11.8712
凑眼	-11.8712
手里拿着一	-11.8712
一段路	-11.8712
伤亡	-11.8712
你应该立即	-11.8712
波涛之中	-11.8712
调制	-11.8712
客服	-11.8712
睡熟	-11.8712
正常工作	-11.8712
无需	-11.8713
洪老叫化	-11.8713
心肺	-11.8713
成婚	-11.8713
这种行为	-11.8713
急忙跃开	-11.8713
从窗口	-11.8713
欧洲人	-11.8713
实是非同小可	-11.8713
好得很啊	-11.8713
坐飞机	-11.8713
带脉	-11.8713
英名	-11.8713
张志	-11.8713
相互间	-11.8713
传译	-11.8714
懂得甚么	-11.8714
哪一天	-11.8714
竖立	-11.8714
口诀	-11.8714
全世界	-11.8714
翻身坐	-11.8714
个耳光	-11.8714
不再言语	-11.8714
四溅	-11.8714
师母	-11.8714
本质	-11.8714
众位师父	-11.8714
本来面目	-11.8714
音调	-11.8714
完毕	-11.8714
提示	-11.8714
你的感情	-11.8715
细沙	-11.8715
挥鞭	-11.8715
鬼丫头	-11.8715
任何东西	-11.8715
勾住	-11.8715
罢休	-11.8715
古松	-11.8715
硬盘	-11.8715
剑刃	-11.8715
瞪着	-11.8716
临死时	-11.8716
属性	-11.8716
帐幕里	-11.8716
路旁	-11.8716
上乘功夫	-11.8716
收泪	-11.8716
青龙	-11.8716
轻轻叹了口气	-11.8717
比拚	-11.8717
侄子	-11.8717
那黑袍将军	-11.8717
抵住	-11.8717
本以为	-11.8717
只怪我	-11.8717
招架不住	-11.8717
自然环境	-11.8717
这取决于你	-11.8717
无法脱身	-11.8717
放弃	-11.8717
河流	-11.8718
靠近	-11.8718
赞美	-11.8718
神色有异	-11.8718
在深山	-11.8718
扭住	-11.8718
喂养	-11.8718
十余日	-11.8718
静坐	-11.8718
对付得了	-11.8718
猛劈	-11.8718
去问问	-11.8718
宝石	-11.8718
金杯	-11.8718
灵位	-11.8719
之役	-11.8719
同学说	-11.8719
摔交	-11.8719
木棒	-11.8719
处置	-11.8719
耳机	-11.8719
相距既	-11.8719
蹲着	-11.8719
梁二人	-11.8719
拖雷与华筝	-11.8719
武功之高	-11.8719
饿死啦	-11.8719
在马背上	-11.872
呼吸渐	-11.872
云集	-11.872
入大海	-11.872
忽听得身后	-11.872
听了这几句话	-11.872
有误	-11.872
我和爹爹	-11.872
身子摇晃	-11.8721
怪客	-11.8721
说得不错	-11.8721
哭了出来	-11.8721
这一节	-11.8721
所教的	-11.8721
巧劲	-11.8721
担子	-11.8721
部队	-11.8721
破裂	-11.8721
鸡鸡	-11.8721
哪肯	-11.8721
沙石	-11.8722
所说的话	-11.8722
教祖	-11.8722
心中暗暗称奇	-11.8722
其余三人	-11.8722
一宵	-11.8722
挺腰	-11.8722
掀起	-11.8722
消解	-11.8722
六个师父	-11.8722
鼓掌	-11.8722
言谈	-11.8722
左胸	-11.8722
快放手	-11.8722
傻姑不说	-11.8723
昔时	-11.8723
母子两人	-11.8723
鸡肉	-11.8723
一个小小	-11.8723
肠子	-11.8723
当即站起	-11.8723
活捉	-11.8723
落将下来	-11.8723
无糖	-11.8723
主张	-11.8724
风雨	-11.8724
飘飘	-11.8724
死我了	-11.8724
出了圈子	-11.8724
破损	-11.8724
婚后	-11.8724
不由得吃了一惊	-11.8725
不是敌手	-11.8725
黄沙	-11.8725
火光下	-11.8725
白虎	-11.8725
乘船	-11.8725
拚死	-11.8725
满脸笑容	-11.8726
用途	-11.8726
右首	-11.8726
倒也不错	-11.8726
疾刺	-11.8726
这一扑	-11.8727
一首诗	-11.8727
呼吸之声	-11.8727
爱民	-11.8727
智力	-11.8727
画像	-11.8727
决计不能	-11.8727
可能指的是	-11.8727
披着	-11.8728
错过了	-11.8728
郭靖红了脸	-11.8728
风帆	-11.8728
喜乐	-11.8728
匹汗血宝马	-11.8728
打在他的	-11.8728
半碗	-11.8728
运转	-11.8728
危急时	-11.8729
空调	-11.8729
极易	-11.8729
白费	-11.8729
仍然需要	-11.8729
未必能	-11.8729
明亮	-11.8729
短信	-11.873
有长进	-11.873
要不然	-11.873
惊险	-11.873
注重	-11.873
胸间	-11.873
来得好快	-11.873
三十里	-11.873
轻视	-11.873
乱闯	-11.873
猛踢	-11.8731
制定	-11.8731
千金	-11.8731
命亲兵	-11.8731
苦功	-11.8732
穆易怒	-11.8732
商家	-11.8732
悟到了	-11.8732
一头黑雕	-11.8733
膝盖	-11.8733
签到	-11.8733
了个空	-11.8733
倾倒	-11.8733
叉手	-11.8733
练就了	-11.8733
样儿	-11.8733
老朋友	-11.8733
性行为	-11.8734
相激	-11.8734
那长官	-11.8734
上眼皮	-11.8735
塞外	-11.8735
除此	-11.8735
黄牛	-11.8735
赌气	-11.8735
恰如	-11.8735
内室	-11.8736
巧招	-11.8736
有意要	-11.8736
他的怀里	-11.8736
没有听见	-11.8736
这位道长	-11.8736
新船	-11.8737
尚远	-11.8737
远远不及	-11.8737
捧着	-11.8737
惹事	-11.8737
几何	-11.8737
未见过	-11.8737
牌子	-11.8737
早饭	-11.8738
报信	-11.8738
瓶子	-11.8738
铁木真义兄	-11.8738
又是一拳	-11.8739
神雕	-11.8739
会议	-11.8739
绝非	-11.8739
相投	-11.8739
走江湖	-11.8739
篮	-11.8739
败兵	-11.874
落下风	-11.874
脸色登时	-11.874
都感诧异	-11.874
直径	-11.8741
大学生	-11.8741
应该是指	-11.8741
公然	-11.8741
抖起	-11.8741
滑行	-11.8742
惟有	-11.8742
退步	-11.8742
闻言	-11.8743
到底是谁	-11.8743
由此	-11.8743
节日	-11.8743
烟雨楼头	-11.8744
第二招	-11.8744
流血	-11.8744
击败	-11.8744
逃跑	-11.8744
飞雪	-11.8744
窗子	-11.8744
心中琢磨	-11.8744
指骨	-11.8744
电击	-11.8744
奉命	-11.8745
很喜欢	-11.8745
干掉	-11.8745
众官兵	-11.8745
▁梅超风听得	-11.8745
盛情	-11.8745
不行吗	-11.8746
各国	-11.8746
一搭上	-11.8746
四野	-11.8746
神话故事	-11.8746
幸会	-11.8746
见了面	-11.8746
想象	-11.8746
事故	-11.8747
言归	-11.8747
打开门	-11.8747
慈和	-11.8747
路线	-11.8747
放心好啦	-11.8747
勇气	-11.8748
觉得怎样	-11.8748
仍是摇头	-11.8748
招亲	-11.8748
雪花	-11.8748
左舷	-11.8748
别想	-11.8748
见了这等	-11.8749
我们可以通过	-11.8749
不敢走近	-11.8749
挺立	-11.875
水波	-11.875
救得了	-11.875
啐了	-11.875
野马	-11.875
之患	-11.8751
进屋去	-11.8751
身材高大	-11.8751
心肝	-11.8751
到村中	-11.8751
宏吉剌部	-11.8752
后仰	-11.8752
更改	-11.8752
闪让	-11.8752
咱们快走	-11.8752
不用担心	-11.8752
切开	-11.8753
乱跳	-11.8753
乱咬	-11.8753
回帐	-11.8753
一条性命	-11.8753
独行	-11.8753
斜飞	-11.8753
在现实中	-11.8754
长鸣	-11.8754
执着	-11.8754
气运	-11.8754
未久	-11.8755
动粗	-11.8755
对抗	-11.8755
越来越小	-11.8755
接下来	-11.8755
养神	-11.8755
你还记得	-11.8755
丹田中	-11.8755
成两截	-11.8756
又是一惊	-11.8756
极盛	-11.8756
语意	-11.8757
毒招	-11.8758
退兵	-11.8758
静听	-11.8758
空军	-11.8758
说到此处	-11.8758
难挡	-11.8758
容让	-11.8758
反感	-11.8759
内服	-11.8759
失声惊呼	-11.8759
眉心	-11.8759
数十里	-11.876
北斗	-11.876
要胜过	-11.876
的玩笑	-11.8761
打雷	-11.8761
▁从字面上	-11.8761
几拳	-11.8762
用全力	-11.8762
夸大	-11.8762
从西域	-11.8762
早些	-11.8762
顺水	-11.8763
高徒	-11.8763
如果你的意思是	-11.8765
深感	-11.8765
比划	-11.8765
声音甚是	-11.8766
离船	-11.8766
臀上	-11.8766
喜的是	-11.8766
精奇	-11.8766
湖心	-11.8767
欢心	-11.8767
花枪	-11.8767
长久	-11.8768
打赌	-11.8768
右眼	-11.8768
北面	-11.8768
只顾	-11.8768
取书	-11.8769
那尸首	-11.8769
你瞧不起	-11.8769
随同	-11.877
可以被视为	-11.877
献上	-11.877
匹骏马	-11.877
闲着	-11.8771
军情	-11.8771
但转念一想	-11.8772
左手伸出	-11.8772
本性	-11.8773
可能会因为	-11.8773
白雕儿	-11.8773
在临安牛家村	-11.8774
轻敌	-11.8774
我在想	-11.8774
痛骂	-11.8776
复生	-11.8776
恭喜你	-11.8776
急闪	-11.8776
见他满脸	-11.8777
传过你	-11.8777
出汗	-11.8777
急忙转身	-11.8778
这几日来	-11.8778
奇异	-11.8778
拳掌	-11.8778
轻忽	-11.8779
毒气	-11.878
凑到	-11.878
收兵	-11.878
不舍得	-11.8781
头领	-11.8781
必输	-11.8781
一番话	-11.8781
义气	-11.8782
也没甚么	-11.8782
眼望着	-11.8782
这许多高手	-11.8782
挨着	-11.8782
飘下	-11.8782
手上功夫	-11.8783
指教	-11.8783
传言	-11.8783
有一件事	-11.8783
所乘	-11.8784
光明	-11.8784
退路	-11.8784
▁欧阳克见她	-11.8784
铁门	-11.8785
不尊重	-11.8785
两岁	-11.8785
分散	-11.8787
你曲师哥	-11.8787
刚才有人	-11.8789
现实中	-11.8789
深情	-11.8789
拿些	-11.8789
吃草	-11.8789
大虫	-11.8789
始终不敢	-11.879
不禁大喜	-11.879
朝天	-11.8791
来确定	-11.8791
回桃花岛	-11.8791
流落	-11.8791
用针	-11.8791
实情	-11.8791
几拜	-11.8792
通风	-11.8792
回音	-11.8792
是否可以	-11.8792
怔怔的出了	-11.8792
说话之时	-11.8793
之属	-11.8793
孩子们	-11.8793
之母	-11.8793
破敌	-11.8794
???	-11.8794
难解	-11.8794
表示的是	-11.8794
未愈	-11.8795
涌出	-11.8796
这小贼	-11.8796
可敬	-11.8797
众女	-11.8797
各拿	-11.8798
推拿	-11.8798
海风	-11.8798
跟人家	-11.8798
战斗	-11.8799
植物人	-11.8799
退让	-11.8801
世事	-11.8801
你说给我听	-11.8801
压倒	-11.8801
小觑了	-11.8802
崩断	-11.8802
书法	-11.8802
不耐烦了	-11.8802
这瞎子	-11.8802
森林	-11.8802
放轻	-11.8803
大半年	-11.8803
咱三个	-11.8803
只是摇头	-11.8803
此女	-11.8803
我干么要	-11.8803
被害	-11.8803
预知	-11.8804
南行	-11.8804
未免太	-11.8804
待敌	-11.8805
设备和	-11.8805
首诗	-11.8806
上崖	-11.8806
学全	-11.8806
死了之后	-11.8806
查问	-11.8806
以内力	-11.8807
无功	-11.8808
地府	-11.8808
他是好人	-11.8809
老远	-11.8809
敌掌	-11.881
黑白	-11.881
我是不是该	-11.881
这厮	-11.881
领兵来	-11.881
之祸	-11.8811
江南六怪与郭靖	-11.8811
自管	-11.8811
毒虫	-11.8811
细想	-11.8812
如此了得	-11.8812
方知	-11.8812
千余人	-11.8813
倒要瞧瞧	-11.8813
科学上	-11.8813
又是难过	-11.8815
更是厉害	-11.8815
合法	-11.8815
斗斗	-11.8816
举动	-11.8816
水位	-11.8816
急忙闪避	-11.8816
说了话	-11.8816
击伤	-11.8817
向各位	-11.8818
到了嘉兴	-11.8818
上岸去	-11.8818
无主	-11.8818
三记	-11.8819
和氧气	-11.8819
神剑	-11.8819
跟黄老邪	-11.8819
远非	-11.8819
手指头	-11.882
长叹	-11.882
落空	-11.882
真情	-11.8821
无毒	-11.8822
算输	-11.8822
施为	-11.8823
电能	-11.8823
早点	-11.8824
这姓郭的小子	-11.8824
并不是真正的	-11.8824
收招	-11.8824
心中一片	-11.8824
蚌肉	-11.8825
擒去	-11.8827
捉住了	-11.8827
俱都	-11.8827
这女娃娃	-11.8827
所以这里的	-11.8828
指力	-11.8828
足足	-11.8828
是以始终	-11.8829
傻笑	-11.8829
那瞎子	-11.8829
所做的	-11.8829
约会	-11.883
有仇	-11.883
挥起	-11.883
小偷	-11.883
▁这可能是因为你在	-11.8831
叹气	-11.8832
更轻	-11.8832
簌簌而	-11.8832
无语	-11.8833
遭到	-11.8833
大醉	-11.8833
▁原来欧阳锋	-11.8833
假死	-11.8833
浸没	-11.8834
这三招	-11.8835
朝着	-11.8835
正常人	-11.8835
挨到	-11.8836
浮力	-11.8838
大喊	-11.8839
大减	-11.884
激将	-11.8842
欺人	-11.8842
未定	-11.8843
论到	-11.8844
撕开	-11.8846
攻来的	-11.8846
总不能	-11.8846
很长	-11.8847
缩小	-11.8847
点破	-11.8847
封闭	-11.8847
内家	-11.8847
是成吉思汗的	-11.8848
只瞧得	-11.8848
成吉思汗怒	-11.8849
早年	-11.8849
手枪	-11.885
兴起	-11.8852
多活	-11.8853
尽然	-11.8853
这人武功	-11.8854
谁家	-11.8854
扫到	-11.8854
上岸来	-11.8855
甚重	-11.8856
硬逼	-11.8856
▁郭靖大吃一惊	-11.8856
即行	-11.8857
天平	-11.8858
原地	-11.8859
请老前辈	-11.8859
心中喜欢	-11.8859
大罪	-11.886
没有直接的	-11.8861
求伯父	-11.8862
只见那女子	-11.8864
盘打	-11.8865
无甚	-11.8865
截住	-11.8867
不舒服	-11.8867
化子	-11.8867
是好朋友	-11.887
是你输了	-11.887
数点	-11.887
别生气	-11.8871
为恶	-11.8871
来处理	-11.8874
是自己人	-11.8876
五成	-11.8877
小张	-11.8877
力战	-11.8879
满头	-11.888
未至	-11.8881
搭住	-11.8881
都是些	-11.8882
斗口	-11.8882
掳去	-11.8882
柴房	-11.8883
等物	-11.8884
拉倒	-11.8884
学来的	-11.8885
连刺	-11.8886
在中都	-11.8886
不良	-11.8887
在半空中	-11.8889
咬着	-11.8889
等情由	-11.889
不会影响	-11.8891
兵多	-11.8892
都感到	-11.8897
学问	-11.8897
好音	-11.8898
两半	-11.8898
得讯	-11.8899
六子	-11.8899
乱叫	-11.8899
着落在	-11.8901
板桌	-11.8901
圣上	-11.8902
可曾	-11.8906
成年	-11.8906
吃起来	-11.8906
你们瞧	-11.8906
闯了进	-11.8911
握在手	-11.8913
救治	-11.8913
喀喇一	-11.8913
身影	-11.8914
一板	-11.8915
占住	-11.8916
这一按	-11.8916
此行	-11.8918
查知	-11.892
城下	-11.892
脚色	-11.892
为帮主	-11.8924
也不禁笑了	-11.8928
群奸	-11.8928
本能	-11.8929
踏步进	-11.8929
丘道长他们	-11.8929
开外	-11.893
对郭靖说	-11.8931
瞧不出来	-11.8935
走过来	-11.8935
用来表示	-11.8938
那店伴	-11.8943
黄药师哼了一声	-11.8945
让路	-11.8945
极长	-11.8946
不知好歹	-11.8947
前足	-11.8949
声喧哗	-11.8954
迎面扑	-11.8956
富贵不可限量	-11.8959
离桃花岛	-11.896
话费	-11.8961
甚是焦急	-11.8962
找着	-11.8963
一瞬间	-11.8966
盏茶	-11.8967
没人来	-11.8968
以内功	-11.8973
拿出来	-11.8974
极多	-11.8983
黄蓉格格一	-11.8983
不禁又惊又喜	-11.8984
颗弹子	-11.8988
剥下	-11.8989
伸展	-11.899
铸成	-11.899
漏了	-11.8991
又是欢喜	-11.8993
即使他们	-11.9003
医生说	-11.9005
中国北方	-11.9007
不好啦	-11.901
声叫喊	-11.9011
分上下	-11.9012
可以尝试使用	-11.9024
我早说	-11.9029
名刀斧手	-11.9032
罪过	-11.9037
又听她	-11.9051
认真	-11.9054
买到	-11.9059
电站	-11.906
银光	-11.9064
是谁杀	-11.9073
得无影无踪	-11.9074
给你报仇	-11.9076
甚么好处	-11.9078
斜眼看	-11.9079
请前辈	-11.9088
不符合	-11.9095
急驰而	-11.9098
食言	-11.9105
战死	-11.9107
颗骷髅	-11.911
暗暗佩服	-11.9112
是热的	-11.9118
进洞去	-11.9122
岂有不	-11.9123
爱国	-11.9126
两派	-11.9127
甚是疼痛	-11.913
低声说了几句	-11.9131
朋友们	-11.9132
伏下	-11.9132
姑娘请	-11.9136
大漠中	-11.9139
有何难	-11.9142
这几下	-11.9146
这巨岩	-11.9147
坐在石上	-11.9154
不知该	-11.9155
听郭靖说	-11.9158
且瞧	-11.9159
en	-11.9162
为什么没有人	-11.9189
带回家	-11.9191
刺破	-11.9195
假山	-11.9195
表现出	-11.9197
两门	-11.92
并不是为了	-11.9203
一个玩笑	-11.9207
擦去	-11.9211
扫中	-11.9215
多半便	-11.9228
计多端	-11.9232
刺向	-11.9233
躲入	-11.9241
发炎	-11.9251
造成严重伤害	-11.9255
留住	-11.927
呼啸	-11.9281
你买的	-11.9295
也难怪	-11.9295
江面	-11.9298
纵身而	-11.9303
一杆	-11.9303
没学到	-11.9311
换下	-11.932
许给	-11.933
盗书	-11.9331
密林	-11.9336
郭靖与拖雷	-11.9339
还记得	-11.9344
讨教	-11.9349
两脚	-11.9352
决不能让	-11.9353
上有毒	-11.9358
不肯娶	-11.937
戴上	-11.937
猛力往	-11.9374
疾伸	-11.9396
抓了一把	-11.9396
落在地	-11.94
也该	-11.9407
段关系	-11.9429
▁这晚	-11.9444
赶走	-11.9444
不能用来	-11.9454
帐房	-11.946
军汉	-11.9473
23	-11.9488
苦苦相	-11.9517
要走啦	-11.9524
He	-11.9532
出手救	-11.9535
总有人	-11.9541
六尺	-11.955
一辆	-11.9559
一声巨响	-11.9567
一刀刺	-11.9572
也不在意	-11.9572
毒死	-11.9577
一席	-11.9579
发送	-11.9594
伸手向	-11.96
疾冲而	-11.961
识水性	-11.9617
▁杨康见	-11.9618
▁江南六怪见	-11.9626
武林人物	-11.9626
赌胜	-11.9629
套拳法	-11.9636
是大金国赵王	-11.964
没料到	-11.9644
坐电梯	-11.9652
郭靖自小	-11.9653
已不在	-11.9653
lo	-11.9666
虽不甚	-11.9668
大的本事	-11.967
身份	-11.9673
众人听了	-11.9699
影飞舞	-11.9705
le	-11.9708
拍的一	-11.9714
我们这里	-11.9717
亦必	-11.972
入定	-11.9722
香扑鼻	-11.9727
掌相抵	-11.9729
一提缰	-11.9737
擦过	-11.9738
手握	-11.9743
觉醒	-11.9744
只说了	-11.9747
鱼缸	-11.9748
要将她	-11.9764
七招	-11.9766
一惊非	-11.9768
持刀	-11.977
躺	-11.9774
无声掌	-11.9792
就变成了	-11.9795
去告知	-11.9804
地洞	-11.981
问一句	-11.9815
怕鬼	-11.982
专业的医疗	-11.9832
到后院	-11.9832
有趣得紧	-11.9836
微笑不语	-11.9841
打完	-11.985
在特定	-11.9861
一交摔倒	-11.9866
就算输	-11.9866
死伤	-11.9868
妈妈说	-11.9883
我的眼睛	-11.9883
郭靖愕然	-11.9883
犹如天	-11.9886
衫子	-11.9886
块钱	-11.9898
指定	-11.9905
纵身扑	-11.9909
跃而出	-11.9913
倒也有趣	-11.9914
山路	-11.9921
买药	-11.9936
服气	-11.9944
堆积	-11.9966
on	-11.997
狂叫	-11.9974
里去啦	-11.9981
活不成	-12.0008
百夫长	-12.0009
从怀里摸出	-12.0021
扑鼻	-12.0023
直跌出去	-12.0025
射手	-12.0027
是长子	-12.0044
探头出	-12.0049
月光照	-12.0057
摸着	-12.0057
更显	-12.0062
面容	-12.0071
潜入	-12.0077
个耳括子	-12.0077
西藏	-12.0081
隐隐有	-12.0095
接任帮主	-12.01
输了给	-12.0102
也决不	-12.0107
天真	-12.0111
难道我还	-12.0121
不许你再	-12.0139
爬到	-12.0141
无动静	-12.0161
不仅仅	-12.0163
未可知	-12.017
向前冲	-12.017
桌底	-12.0193
回临安	-12.0199
有专门的	-12.0224
一班	-12.0225
齐发	-12.0236
寻不着	-12.0259
加理会	-12.0269
到第八	-12.0269
整整齐齐的排	-12.0276
铁掌峰	-12.0288
下不了手	-12.0303
了十五年	-12.0319
路上遇到	-12.0321
岩石上	-12.0324
名丐帮帮众	-12.0343
金国王爷	-12.0345
在旁看得	-12.0371
月光下见	-12.0371
能达到	-12.0374
仆从	-12.0388
稍停	-12.0401
为的是要	-12.0436
即知	-12.0451
神色间	-12.0483
是指通过	-12.049
几次想	-12.0509
异状	-12.0516
清静	-12.0522
在同一	-12.0546
把真经	-12.0546
爪子	-12.0553
微微晃动	-12.0555
店门口	-12.0556
叫化儿	-12.0556
三个月	-12.056
22	-12.058
马尾	-12.0622
过不少	-12.0626
尖声	-12.0658
撞死	-12.0662
寒意	-12.0676
耳旁	-12.0687
歼	-12.0714
熟识	-12.0737
那么你可以	-12.0739
含意	-12.0747
解毒	-12.0752
射下来	-12.0764
瞥	-12.0766
同赴	-12.0774
刀斧手	-12.0782
蜀国	-12.0791
真傻	-12.081
遗物	-12.0832
向悬崖	-12.0839
骑鲨	-12.086
在郭靖肩头	-12.0867
感到不适	-12.0867
湖面上	-12.0882
爱玩	-12.0885
三件事	-12.089
踏步	-12.09
是正确的	-12.0901
月明	-12.0918
悠悠	-12.0923
喀	-12.0936
加紧	-12.0938
张嘴	-12.094
劫难	-12.0946
总是摇头	-12.0953
自己想出来的	-12.0956
血痕	-12.0966
六月	-12.0969
声震	-12.0973
点中了	-12.0987
现喜色	-12.099
许配	-12.1021
通常用来指	-12.1028
白驼山少主	-12.1032
斟	-12.1033
等同于	-12.104
白光闪	-12.1048
迷迷糊糊	-12.1051
疗	-12.1055
砰的一	-12.1058
还不容易	-12.1062
真是聪明	-12.1064
组成	-12.1068
恨恨	-12.1072
连珠	-12.1073
轻轻推开	-12.1075
小觑	-12.1075
普	-12.1077
砰砰砰	-12.1084
大蚌	-12.1085
回店	-12.1087
抗拒	-12.1092
声雷动	-12.1095
从字面上	-12.1111
你有本事就	-12.1112
别理他	-12.1113
议	-12.1115
众将士	-12.1119
妾	-12.112
庙前	-12.1123
愚鲁	-12.1124
照面	-12.1125
啐	-12.113
把握	-12.1136
箱中	-12.1138
哇哇大叫	-12.1143
姻	-12.1144
去交给	-12.1146
侵害	-12.1149
伯	-12.1151
在飞机上	-12.1155
帕	-12.1156
所作的	-12.116
这些日子	-12.116
承受	-12.1161
红了脸	-12.1161
翘	-12.1164
宵	-12.1166
叶三姐	-12.117
收徒	-12.117
眼眶	-12.117
黑袍将军	-12.117
仁义	-12.1171
撇	-12.1172
旦	-12.1173
柱后	-12.1174
感到不舒服	-12.1174
大宋皇帝	-12.1175
欧洲	-12.1175
礁	-12.1176
希罕	-12.1179
声吆喝	-12.1179
千古	-12.1181
叩	-12.1182
蓬头	-12.1183
陷入泥	-12.1186
嗣	-12.1187
哟	-12.1188
剃	-12.1188
勉	-12.1189
吓得魂飞	-12.1189
监狱	-12.1189
袜	-12.119
愉	-12.119
结义为兄弟	-12.119
绵	-12.119
摄	-12.119
享受	-12.1191
躯	-12.1191
狱	-12.1191
僻	-12.1192
个鬼脸	-12.1192
喻	-12.1192
脆	-12.1192
寓	-12.1192
抡	-12.1192
刁	-12.1192
秃木峰	-12.1192
植	-12.1193
荐	-12.1193
啷	-12.1193
刘仲禄	-12.1193
希	-12.1193
感惊讶	-12.1193
在黑沼茅屋	-12.1193
赫	-12.1194
龄	-12.1194
飞天蝙蝠	-12.1194
眺	-12.1194
腊	-12.1194
你的经济状况	-12.1194
吸了口气	-12.1194
辅	-12.1194
项颈	-12.1194
十字架	-12.1194
万念俱灰	-12.1194
愈走愈	-12.1194
顽皮胡闹	-12.1194
更是诧异	-12.1194
蝉	-12.1194
魏	-12.1194
审查	-12.1194
杀人不眨眼的大魔头	-12.1194
铭	-12.1194
王罕与札木合	-12.1195
抑制	-12.1195
巅	-12.1195
貂	-12.1195
雇	-12.1195
俦	-12.1195
走进店来	-12.1195
蹻	-12.1195
姚	-12.1195
叱	-12.1195
岳飞的遗书	-12.1195
怦然心动	-12.1195
恨之入骨	-12.1195
是两种完全不同的	-12.1195
赘婿	-12.1195
饭是钢	-12.1195
频	-12.1195
戈	-12.1195
巳	-12.1195
陆氏父子	-12.1195
涎	-12.1195
涩	-12.1195
傍	-12.1195
七十二路空明拳	-12.1195
膛	-12.1195
袄	-12.1195
走出房去	-12.1195
三个门的大峡谷	-12.1195
安抚	-12.1195
笺	-12.1195
桃源县	-12.1195
舔	-12.1195
鄂尔达	-12.1195
码	-12.1195
扁桃体	-12.1195
滋	-12.1195
你亲生的爹爹	-12.1195
噎	-12.1195
大英雄大豪杰	-12.1195
红纱和绫	-12.1195
老衲	-12.1195
妓	-12.1195
姬	-12.1195
我来助你	-12.1195
煞	-12.1195
贿	-12.1195
跋	-12.1195
那么你可能需要考虑	-12.1195
锻炼	-12.1195
驰骋	-12.1195
唾液	-12.1195
热胀冷缩	-12.1195
-------------	-12.1195
卖炭翁	-12.1195
谣	-12.1195
峭	-12.1196
衣饰华	-12.1196
双氧水	-12.1196
重重叠叠	-12.1196
懊	-12.1196
启禀帮主	-12.1196
的工作原理是通过	-12.1196
缒	-12.1196
详述	-12.1196
里里外外	-12.1196
楼房	-12.1196
D	-12.1196
亲眼目睹	-12.1196
切割树皮	-12.1196
囚禁	-12.1196
搂在怀里	-12.1196
敏感词	-12.1196
杏	-12.1196
监国公主	-12.1196
睾丸	-12.1196
红润	-12.1196
罪魁祸首	-12.1196
脚步好快	-12.1196
风油精	-12.1196
希特勒	-12.1196
忽兰皇后	-12.1196
怅	-12.1196
丝绸之路	-12.1196
仰起了头	-12.1196
你有种就	-12.1196
撮	-12.1196
来衡量	-12.1196
泪如雨下	-12.1196
进行咨询	-12.1196
吞服	-12.1196
后宫三千	-12.1196
耸然动容	-12.1196
马拉松	-12.1196
三个肉瘤	-12.1196
东转西	-12.1196
众目睽睽之下	-12.1196
切磋武功	-12.1196
只叫得一声	-12.1196
披在身上	-12.1196
拜我为师	-12.1196
是全真门下	-12.1196
是因为电视屏幕	-12.1196
满天花雨掷金针	-12.1196
移魂大法	-12.1196
稍纵即逝	-12.1196
立了大功	-12.1196
紧跟在后	-12.1196
耐热菌	-12.1196
谱	-12.1196
走出数十步	-12.1196
陈抟老祖	-12.1196
韩氏兄妹	-12.1196
[...]
